{"version":"1.0","truncation":null,"padding":null,"added_tokens":[{"id":0,"special":true,"content":"4/4","single_word":false,"lstrip":false,"rstrip":false,"normalized":false},{"id":1,"special":true,"content":"6/8","single_word":false,"lstrip":false,"rstrip":false,"normalized":false},{"id":2,"special":true,"content":"2/4","single_word":false,"lstrip":false,"rstrip":false,"normalized":false},{"id":3,"special":true,"content":"3/4","single_word":false,"lstrip":false,"rstrip":false,"normalized":false},{"id":4,"special":true,"content":"9/8","single_word":false,"lstrip":false,"rstrip":false,"normalized":false},{"id":5,"special":true,"content":"12/8","single_word":false,"lstrip":false,"rstrip":false,"normalized":false},{"id":6,"special":true,"content":"3/2","single_word":false,"lstrip":false,"rstrip":false,"normalized":false},{"id":7,"special":true,"content":"Gmajor","single_word":false,"lstrip":false,"rstrip":false,"normalized":false},{"id":8,"special":true,"content":"Dmajor","single_word":false,"lstrip":false,"rstrip":false,"normalized":false},{"id":9,"special":true,"content":"Amajor","single_word":false,"lstrip":false,"rstrip":false,"normalized":false},{"id":10,"special":true,"content":"Adorian","single_word":false,"lstrip":false,"rstrip":false,"normalized":false},{"id":11,"special":true,"content":"Eminor","single_word":false,"lstrip":false,"rstrip":false,"normalized":false},{"id":12,"special":true,"content":"Edorian","single_word":false,"lstrip":false,"rstrip":false,"normalized":false},{"id":13,"special":true,"content":"Bminor","single_word":false,"lstrip":false,"rstrip":false,"normalized":false},{"id":14,"special":true,"content":"Amixolydian","single_word":false,"lstrip":false,"rstrip":false,"normalized":false},{"id":15,"special":true,"content":"Aminor","single_word":false,"lstrip":false,"rstrip":false,"normalized":false},{"id":16,"special":true,"content":"Dmixolydian","single_word":false,"lstrip":false,"rstrip":false,"normalized":false},{"id":17,"special":true,"content":"Cmajor","single_word":false,"lstrip":false,"rstrip":false,"normalized":false},{"id":18,"special":true,"content":"Fmajor","single_word":false,"lstrip":false,"rstrip":false,"normalized":false},{"id":19,"special":true,"content":"Dminor","single_word":false,"lstrip":false,"rstrip":false,"normalized":false},{"id":20,"special":true,"content":"Gminor","single_word":false,"lstrip":false,"rstrip":false,"normalized":false},{"id":21,"special":true,"content":"Ddorian","single_word":false,"lstrip":false,"rstrip":false,"normalized":false},{"id":22,"special":true,"content":"Gdorian","single_word":false,"lstrip":false,"rstrip":false,"normalized":false},{"id":23,"special":true,"content":"Emajor","single_word":false,"lstrip":false,"rstrip":false,"normalized":false},{"id":24,"special":true,"content":"Gmixolydian","single_word":false,"lstrip":false,"rstrip":false,"normalized":false},{"id":25,"special":true,"content":"Bdorian","single_word":false,"lstrip":false,"rstrip":false,"normalized":false},{"id":26,"special":true,"content":"Cdorian","single_word":false,"lstrip":false,"rstrip":false,"normalized":false},{"id":27,"special":true,"content":"Fdorian","single_word":false,"lstrip":false,"rstrip":false,"normalized":false},{"id":28,"special":true,"content":"Emixolydian","single_word":false,"lstrip":false,"rstrip":false,"normalized":false},{"id":29,"special":true,"content":"Bmixolydian","single_word":false,"lstrip":false,"rstrip":false,"normalized":false}],"normalizer":null,"pre_tokenizer":{"type":"ByteLevel","add_prefix_space":true,"trim_offsets":true},"post_processor":null,"decoder":null,"model":{"type":"BPE","dropout":null,"unk_token":null,"continuing_subword_prefix":null,"end_of_word_suffix":null,"fuse_unk":false,"vocab":{"4/4":0,"6/8":1,"2/4":2,"3/4":3,"9/8":4,"12/8":5,"3/2":6,"Gmajor":7,"Dmajor":8,"Amajor":9,"Adorian":10,"Eminor":11,"Edorian":12,"Bminor":13,"Amixolydian":14,"Aminor":15,"Dmixolydian":16,"Cmajor":17,"Fmajor":18,"Dminor":19,"Gminor":20,"Ddorian":21,"Gdorian":22,"Emajor":23,"Gmixolydian":24,"Bdorian":25,"Cdorian":26,"Fdorian":27,"Emixolydian":28,"Bmixolydian":29,"!":30,"\"":31,"#":32,"&":33,"'":34,"(":35,")":36,"*":37,"+":38,",":39,"-":40,".":41,"/":42,"0":43,"1":44,"2":45,"3":46,"4":47,"5":48,"6":49,"7":50,"8":51,"9":52,":":53,";":54,"<":55,"=":56,">":57,"?":58,"@":59,"A":60,"B":61,"C":62,"D":63,"E":64,"F":65,"G":66,"H":67,"I":68,"J":69,"K":70,"L":71,"M":72,"N":73,"O":74,"P":75,"Q":76,"R":77,"S":78,"T":79,"U":80,"V":81,"W":82,"X":83,"Y":84,"Z":85,"[":86,"\\":87,"]":88,"^":89,"_":90,"`":91,"a":92,"b":93,"c":94,"d":95,"e":96,"f":97,"g":98,"h":99,"i":100,"j":101,"k":102,"l":103,"m":104,"n":105,"o":106,"p":107,"q":108,"r":109,"s":110,"t":111,"w":112,"x":113,"y":114,"|":115,"}":116,"£":117,"¨":118,"®":119,"¯":120,"´":121,"Â":122,"Æ":123,"â":124,"ĉ":125,"Ċ":126,"Ĕ":127,"Ġ":128,"Ģ":129,"Ĥ":130,"Ĵ":131,"Ķ":132,"ĺ":133,"Ļ":134,"ľ":135,"Ŀ":136,"ł":137,"BA":138,"ed":139,"Bc":140,"ef":141,"||":142,"GA":143,"cA":144,"Bd":145,"gf":146,":|":147,"FA":148,"cd":149,"BG":150,"or":151,"GF":152,"GE":153,"|:":154,"fd":155,"DE":156,"AA":157,"ga":158,"Bcd":159,"aj":160,"maj":161,"major":162,"ec":163,"FE":164,"cBA":165,"ge":166,":||":167,"Ġ4":168,"FD":169,"dB":170,"af":171,"dd":172,"cB":173,"Ġ|:":174,"/|":175,"ged":176,"AB":177,"fed":178,"de":179,"FG":180,":||:":181,"ĠD":182,"Ad":183,"ce":184,"GG":185,"ĠG":186,"ba":187,"fe":188,"BAG":189,"BB":190,"|(":191,"DD":192,"efg":193,"EE":194,"AF":195,"FGA":196,"fa":197,"dc":198,"AG":199,"ĠGmajor":200,"Ġ6":201,"ĠDmajor":202,"def":203,"gfed":204,"ea":205,"GFE":206,"eg":207,"GB":208,"fg":209,"mi":210,"ee":211,"dBA":212,"gfe":213,"ABc":214,"ABA":215,"|||:":216,"ded":217,"ĠA":218,"ia":219,"ian":220,"DFA":221,"GAB":222,"ecA":223,"GBd":224,"dg":225,"ag":226,"Ac":227,"df":228,"edB":229,"ED":230,"dBG":231,"dA":232,"min":233,"eA":234,"dcd":235,"minor":236,"ĠE":237,"dcA":238,"Be":239,"FED":240,"edc":241,"orian":242,"GFG":243,"EF":244,"DG":245,"|]":246,"EG":247,"BcA":248,"BAB":249,"aa":250,"BAF":251,"gfg":252,"DB":253,"AGE":254,"ABd":255,",|":256,"cc":257,"gg":258,"EA":259,"BGA":260,"ff":261,"FF":262,"efed":263,"-|":264,"afd":265,"cde":266,"dcBA":267,"AFA":268,"DEF":269,"fga":270,"Add":271,"BGG":272,"agf":273,"gd":274,"ABcd":275,"AFD":276,"eAA":277,"DF":278,"efd":279,"cAA":280,"GED":281,"ĠB":282,"cAG":283,"eaa":284,"efe":285,"Ġ3":286,"AGA":287,"Ġ2":288,"dG":289,"edBA":290,"GFGA":291,"bag":292,"BE":293,"bg":294,"BAGA":295,"CE":296,"cBc":297,"DA":298,"GEE":299,"BAFA":300,"dorian":301,"gedB":302,"mix":303,"bga":304,"yd":305,"ydian":306,"ol":307,"olydian":308,"ece":309,"mixolydian":310,"EAA":311,"ĠAmajor":312,"fef":313,"dcB":314,"BGE":315,"DC":316,"AGF":317,"BGB":318,"faf":319,"ede":320,"BdB":321,"|[":322,"BEE":323,"baf":324,"ecd":325,"ĠAd":326,"|=":327,":|[":328,"ĠAdorian":329,"GEG":330,"BcBA":331,"dBd":332,"GFED":333,"fA":334,"Bg":335,"Ace":336,"AFE":337,"efge":338,"Bcde":339,"cBAG":340,"BABd":341,"GABd":342,"efga":343,"DEG":344,"ĠEminor":345,"EFG":346,"edBd":347,"EFGA":348,"ad":349,"gef":350,"CD":351,"|^":352,"geg":353,"cAF":354,"AD":355,"BAA":356,"FB":357,"fec":358,"dfed":359,"edcd":360,"ĠEdorian":361,"ab":362,"GBA":363,"ae":364,"fgf":365,"GABc":366,"FEF":367,"DEFA":368,"AAA":369,"EFA":370,"age":371,"edcA":372,"eB":373,"aged":374,"BGBd":375,"FAF":376,"EDE":377,"egf":378,"defg":379,">^":380,"ac":381,"gB":382,"gb":383,"dfa":384,"dBB":385,"fB":386,"gab":387,"ĠBminor":388,"fdf":389,"Bee":390,"ĠF":391,"BcdB":392,"DGG":393,"cAc":394,"fdd":395,"AGFG":396,"FAd":397,"Ġ9":398,"aba":399,"cdef":400,"BAGF":401,"BAGE":402,"cE":403,"BcB":404,"gec":405,"edcBA":406,"gdB":407,"DED":408,"FDD":409,"ABG":410,"edcB":411,"cec":412,"efgf":413,"DEFGA":414,"cBcd":415,"ĠAmixolydian":416,"dBc":417,"efa":418,"CA":419,"GGG":420,"gedBA":421,"dF":422,"Ae":423,"GAG":424,"FGE":425,"ĠAminor":426,"Bde":427,"Ġd":428,"EB":429,"FDE":430,"cAGE":431,"BAFD":432,":|||:":433,"BBB":434,"dfe":435,"BABc":436,"ecB":437,"cAB":438,"defga":439,"BAFE":440,"dAF":441,"edBG":442,"gfga":443,"Bdg":444,"AE":445,"CB":446,"aga":447,"ĠDmixolydian":448,"dgg":449,"cAAA":450,"cAFA":451,"cG":452,"edef":453,"GFD":454,"CDE":455,"AFF":456,"dfd":457,"ĠC":458,"ABAG":459,"ADD":460,"DGB":461,"GABcd":462,"Adfd":463,"FEE":464,"DEGA":465,"gfd":466,"Af":467,"dBGA":468,"GFDD":469,"ced":470,"cBG":471,"fdB":472,"FDFA":473,"Bcdef":474,"gc":475,"Aa":476,"dBAF":477,"GD":478,"gfef":479,"fgfed":480,"Bce":481,"bagf":482,"edd":483,"/^":484,"dAA":485,"DEFG":486,"eBB":487,"cdefg":488,"gag":489,"Ġ|":490,"DGBd":491,"Bdd":492,"ADFA":493,"12":494,",>":495,"BGGG":496,"AGFE":497,"||:":498,"bge":499,"cdB":500,"afg":501,"ĠCmajor":502,",/":503,"fedc":504,"cdc":505,"BGdG":506,"FDF":507,"cea":508,"dAFA":509,"fc":510,"afe":511,"fdcA":512,"BF":513,"EC":514,"ecc":515,"Ġ12":516,"GABG":517,"fge":518,"fb":519,"ege":520,"AGG":521,"DDD":522,"AcBA":523,"BAGB":524,"fBB":525,"Gc":526,"EDB":527,"eG":528,"dBAG":529,"gagf":530,"gedc":531,"ABAA":532,"gdBG":533,"fedB":534,"dGG":535,"cABc":536,"efec":537,"cBAB":538,"cAFG":539,"eAcA":540,"EGB":541,"EFE":542,"agfed":543,"dcAG":544,"FAc":545,"cded":546,"cAGA":547,"BABcd":548,"egg":549,"gedBG":550,"FGAB":551,"ABcA":552,"cF":553,"EEE":554,"ca":555,"fgfe":556,"dde":557,"dedB":558,"ABdef":559,"GEDE":560,"faa":561,"FEDE":562,"AcA":563,"CC":564,"fafd":565,"Ġe":566,"fAA":567,"Bcdefg":568,"gdBd":569,"Ag":570,"ddd":571,"FGABc":572,"BGFG":573,"BGEE":574,"BBA":575,"fdcd":576,"cABGA":577,"FAA":578,"fdecd":579,"eee":580,"/:|":581,"gee":582,"GEF":583,"Gd":584,"cEE":585,"bc":586,"AGFA":587,"eaaga":588,"eAfA":589,"Adf":590,"aec":591,"BcAA":592,":|]":593,"DFAd":594,"GBdg":595,"cee":596,"dBAFE":597,"Fd":598,"'|":599,"deg":600,"fdad":601,"FAD":602,"ecBA":603,"fede":604,"Bdef":605,"DGBG":606,"gaba":607,"agfe":608,"fecA":609,"Beed":610,"ceg":611,"ĠFmajor":612,"BAAA":613,"FAB":614,"DEDD":615,"GEEDD":616,"/>":617,"GEC":618,"GBB":619,"GBG":620,"fddd":621,"AFDD":622,"FGFE":623,"fde":624,"dedc":625,"efdB":626,"be":627,"cdec":628,"GABGA":629,"Bdf":630,"FDDD":631,"AFDE":632,"|.":633,"Ġ(":634,"afa":635,"dE":636,"edefg":637,"Adfa":638,"AGED":639,"bd":640,"|||":641,"cdcB":642,"FGF":643,"GABA":644,"GEEE":645,"EFGE":646,"ABGA":647,"dBcA":648,"dfaf":649,"ABAFA":650,"dff":651,"cf":652,"BABG":653,"FEFA":654,"gfedcB":655,"dBAB":656,"BD":657,"bgag":658,"AcB":659,"GAGG":660,"AAAA":661,"BdBA":662,"ĠDminor":663,"eged":664,"Bf":665,"Bdc":666,"GBdB":667,"dec":668,"dcBc":669,"bb":670,"bgg":671,"gfedc":672,"FEDB":673,"GAc":674,"GBAG":675,"gfge":676,"fded":677,"gaf":678,"cBcA":679,"fag":680,"FDA":681,"ecAA":682,"BAGFE":683,"Addcd":684,"gede":685,"CEG":686,"defd":687,"ABAF":688,"add":689,"cBAF":690,"ĠGminor":691,"dAFD":692,"BGdGBG":693,"aA":694,"GEA":695,"dBGG":696,"Ġc":697,"Ġ|:(":698,"ABde":699,"DAD":700,"cdeg":701,":||:(":702,"AGEG":703,"agfg":704,"afed":705,"eAce":706,"gba":707,"BcBAG":708,"EDC":709,"DCB":710,"eaag":711,"EGA":712,"dD":713,"BGGA":714,"bfaf":715,"dGBd":716,"AGAB":717,"ddcd":718,"Adcd":719,"efee":720,"fee":721,"Ġf":722,"dBABG":723,"dcdef":724,"bgaf":725,"EDD":726,"gdd":727,"BdcB":728,"gedg":729,"fagf":730,"efdec":731,"ecAc":732,"afec":733,"fedcBA":734,"defa":735,"gA":736,"aff":737,"decA":738,"dBGB":739,"CEA":740,"cABG":741,"fdc":742,"ddc":743,"efgfed":744,"BBAB":745,"BdBG":746,"dcde":747,"BgB":748,"defe":749,"dBBA":750,"GEDD":751,"FGB":752,"BFA":753,"GFGE":754,"ĠDdorian":755,"fdA":756,"gecd":757,"dcBAG":758,"dedBA":759,"AAB":760,"faaf":761,"cdcBA":762,"FDB":763,"BAGBA":764,">=":765,"AABc":766,"ccc":767,"BcAF":768,"afgef":769,"Adef":770,"BeB":771,"EFED":772,"da":773,"cAGEEDD":774,"cAd":775,"gfedB":776,"cef":777,"Bcdg":778,"cBB":779,"edeg":780,"GFGAB":781,"ffef":782,"abaf":783,"ABcde":784,"BBAG":785,"Bcdc":786,"BGF":787,"Ec":788,"Acd":789,"DBD":790,"fdcAG":791,"BdG":792,"EGG":793,"FBB":794,"bage":795,"dedBd":796,"AGFGA":797,"gBB":798,"GFEF":799,"abag":800,"afef":801,"ABce":802,"Beede":803,"fgaf":804,"Bddd":805,"DEFD":806,"eaaa":807,"aAA":808,"fedfed":809,"dfecd":810,"âĢ":811,"FFF":812,"dedd":813,"Aaa":814,"fged":815,"eed":816,"gage":817,"dBGBA":818,"BdA":819,"BdcA":820,"|_":821,"afged":822,"EFGAB":823,"ĠM":824,"DFF":825,"gfdc":826,"ceA":827,"cGE":828,"GAF":829,"egb":830,"edcBAG":831,"GEED":832,"Ġg":833,"BDD":834,"gfefed":835,"agef":836,"BGGB":837,"gfdcA":838,"eedB":839,"AAG":840,"ggg":841,",:|":842,"DGA":843,"Gg":844,"FAG":845,"fedcAG":846,"ABB":847,"/<":848,"ffed":849,"FAdf":850,"DEDB":851,"'d":852,"AFED":853,"EGE":854,"Bcded":855,"eaaged":856,"cdf":857,"AABA":858,"efged":859,"gfec":860,"FGAF":861,"Ge":862,"GAGE":863,"Adc":864,"AEE":865,"cedc":866,"ABAGE":867,"egfe":868,"BdAd":869,"AAGA":870,"GFGABc":871,"EAAGA":872,"Bed":873,"efedB":874,"cecA":875,"BGD":876,"ĠGdorian":877,"ADFD":878,"aecA":879,"BdAF":880,"eae":881,"DGGFG":882,"BGEG":883,"eag":884,"fdAdfd":885,"ecBcA":886,"dBAFA":887,"dggfg":888,"fdef":889,"cBAc":890,"ddf":891,"dega":892,"dedcBA":893,"EAc":894,"aB":895,"cAGED":896,"defed":897,"BAFB":898,"/||":899,"eAc":900,"AdA":901,"dBGBd":902,"GBe":903,"bf":904,"eaaf":905,"FEFG":906,"cAFAG":907,"gfa":908,"gedBGA":909,"BABde":910,"eef":911,"FGAc":912,"AFEF":913,"BAFDF":914,"dAd":915,"efedc":916,"cABcd":917,"ecg":918,"gea":919,"EAcA":920,"Bded":921,"cdBA":922,"BAAG":923,"baga":924,"DEGAB":925,"Bdefg":926,"dBg":927,"cg":928,"ecBc":929,"egd":930,"ABcBA":931,"cdcA":932,"GEDB":933,"fedfe":934,"efedBA":935,"cdecd":936,"AFAB":937,"AFEFD":938,"efgaf":939,"EFD":940,"BGAFG":941,"eGdG":942,"dFF":943,"dcAF":944,"ABGE":945,"FEFD":946,"efde":947,"fddcd":948,"fedcB":949,"fff":950,"BGAGEG":951,"bafd":952,"/=":953,"ddB":954,"GAGF":955,"DDE":956,"âĢĻ":957,"EBB":958,"|]|:":959,"eBd":960,"defdcA":961,"fefga":962,"BcdA":963,"BcdBG":964,"fedBA":965,"AFd":966,"AFDF":967,"dgf":968,"Ġa":969,"cAGFGA":970,"cAGF":971,"gaged":972,"EDCD":973,"AFAd":974,"AGFED":975,"EEDE":976,"DFD":977,"edg":978,"gabga":979,"aee":980,"Bcdf":981,"FADAFA":982,"cAAB":983,"GFA":984,"BcAG":985,"Bgg":986,"EDEF":987,"Ġdc":988,"cBGG":989,"gecA":990,"dddd":991,"CF":992,"GGA":993,"GEFG":994,"Bcdeg":995,"DCD":996,"efgfe":997,"||||":998,"FAAA":999,"cBAGF":1000,"BFAF":1001,"EDEG":1002,"GDB":1003,"dDD":1004,"efedcB":1005,"GAGEG":1006,"EAAA":1007,"gcac":1008,"CG":1009,"gfeg":1010,"FABc":1011,"edBBAF":1012,"Aff":1013,"Dd":1014,"dBBB":1015,"DFAF":1016,"DCA":1017,"gbag":1018,"fedcd":1019,"fededc":1020,"dBAFD":1021,"ABcB":1022,"cBAGA":1023,"Acc":1024,"bafe":1025,"gbg":1026,"AGFDD":1027,"fecB":1028,"/.":1029,"GEBE":1030,"afdf":1031,"GBc":1032,"fedcAF":1033,"AGB":1034,"fgafg":1035,"AGFD":1036,"Acea":1037,"fdadfd":1038,"GBAF":1039,"gedBd":1040,"BBcd":1041,"GGFG":1042,"eede":1043,"fefg":1044,"BGDGBG":1045,"EFGABc":1046,"EGFE":1047,"fece":1048,"defde":1049,"egdBA":1050,"dcdfed":1051,"BADFA":1052,"BcAB":1053,"gfdd":1054,"bB":1055,"BAAB":1056,"edBAG":1057,"fagfed":1058,"dBAA":1059,"ecAABc":1060,"abc":1061,"eAfAeA":1062,"cFF":1063,"edBc":1064,"gabg":1065,"afge":1066,"DFAB":1067,"EGc":1068,"BGAF":1069,"gegdB":1070,"AFG":1071,"BcBB":1072,"FEDF":1073,"AGABc":1074,"DAA":1075,"cdecA":1076,"gfede":1077,"eecA":1078,"DBDAD":1079,",(":1080,",||":1081,"EFEE":1082,"Fc":1083,"cdA":1084,"AFGE":1085,"dBABd":1086,"aaa":1087,"dcBAGF":1088,"ABGFED":1089,"fdg":1090,"ABAGF":1091,"fAd":1092,"ĠGA":1093,"bagfe":1094,"EED":1095,"dedBG":1096,"BAd":1097,"FEFGA":1098,"defgfe":1099,"BcAFA":1100,"ABcdef":1101,"Ade":1102,"eABA":1103,"ddef":1104,"ĠBd":1105,"ĠDE":1106,"dcAFG":1107,"ECE":1108,"BAGAB":1109,"Beg":1110,"gbaf":1111,"BAGED":1112,"eac":1113,"BeedBA":1114,"fefa":1115,"FBd":1116,"GEFDE":1117,"dcBd":1118,"egdB":1119,"ĠEmajor":1120,"bafa":1121,"AGGG":1122,"ega":1123,"cAce":1124,"FEDFA":1125,"gedBBAA":1126,"BcdcB":1127,"agg":1128,"FEDA":1129,"ccBc":1130,"eaage":1131,"/|||:":1132,"dGB":1133,"ggfg":1134,"edBAB":1135,"cdedcA":1136,"ecAB":1137,"dcAB":1138,"Beee":1139,"GGAB":1140,"cAAc":1141,"GEDEG":1142,"BEdE":1143,"eefg":1144,"baged":1145,"EGD":1146,"AGEE":1147,"eAAA":1148,"ĠAB":1149,"BAFG":1150,"FDC":1151,"bab":1152,"defdB":1153,"dgdB":1154,"GEEDE":1155,"bdad":1156,"db":1157,"ĠAG":1158,"gfaf":1159,"fdfa":1160,"dcAAGE":1161,"AfA":1162,"FAdA":1163,"AAc":1164,"cBAGB":1165,"Aee":1166,"Ddd":1167,"fedefg":1168,"decd":1169,"BAGFA":1170,"agec":1171,"fgag":1172,"DEFGAB":1173,"FGAG":1174,"eage":1175,"BBc":1176,"efaf":1177,"GFGB":1178,"dBAGFDD":1179,"AFDFA":1180,"dee":1181,"GBE":1182,"ABAGA":1183,"ABAGFE":1184,"'/":1185,"egfed":1186,"dBe":1187,"dgBg":1188,"dBGGAB":1189,"agfgfe":1190,"EFAB":1191,"BcdcBA":1192,"DDDD":1193,"afdfe":1194,"DAFA":1195,"bege":1196,"DEFE":1197,"cBABAG":1198,"aef":1199,"FAEA":1200,"GEDG":1201,"defge":1202,"gefde":1203,"cBd":1204,"fcA":1205,"gece":1206,"gfde":1207,"FDDA":1208,"ABcAd":1209,"BFF":1210,"DFE":1211,"cBcde":1212,"gdc":1213,"ĠBc":1214,"cAeA":1215,"BdBd":1216,"BGED":1217,"bagfed":1218,"GBde":1219,"AGFAG":1220,"gfged":1221,"CEE":1222,"fdedBd":1223,"cBBA":1224,"FGAFG":1225,"dcdf":1226,"cAeAcA":1227,"eAAB":1228,"GFGABd":1229,"agedB":1230,"dgd":1231,"FEDC":1232,"efeedB":1233,"cBcABc":1234,"AFEE":1235,"edBdBA":1236,"gG":1237,"GAA":1238,"BcdecA":1239,"fedf":1240,"dedcB":1241,"bgafg":1242,"GBAFG":1243,"CED":1244,"gefg":1245,"edBB":1246,"GAcd":1247,"BdAB":1248,"GFDE":1249,"feed":1250,"BEB":1251,"cBce":1252,"ageg":1253,"BAc":1254,"BAGG":1255,"cdBG":1256,"fdBd":1257,"fad":1258,"DEFDE":1259,"Addef":1260,"BAGABc":1261,"agfedc":1262,"dcdefg":1263,"'>":1264,"AEA":1265,"GDG":1266,"||(":1267,"GECE":1268,"fdBA":1269,"FGAd":1270,"gfedBG":1271,"BAGABd":1272,"egfdd":1273,"/|:":1274,"AdB":1275,"dcBG":1276,"Addd":1277,"eff":1278,"BGd":1279,"fdec":1280,"dBBAB":1281,"AGGFG":1282,"edcBcd":1283,"AFDDFA":1284,"afgefdec":1285,"CDEF":1286,"ddcB":1287,"dcBcBA":1288,"gfedBA":1289,"GBdgdB":1290,"DFED":1291,"gfdf":1292,"FEEE":1293,"agfd":1294,"AGABG":1295,"gcacgc":1296,"Fdd":1297,"EFGFE":1298,"gfgbag":1299,"bgafgfed":1300,"FGEFD":1301,"defgafdf":1302,"ADF":1303,"FDEF":1304,"eefe":1305,"fefd":1306,"GAFD":1307,"ceAc":1308,"BcABG":1309,"fgafd":1310,"bff":1311,"gde":1312,"BAGFED":1313,"afecA":1314,"dcc":1315,"BAFAFE":1316,"bgd":1317,"dBcd":1318,"dgfg":1319,"gefd":1320,"BAGFG":1321,":|(":1322,"FAFD":1323,"bagagf":1324,"faaa":1325,",<":1326,"Bb":1327,"EDDD":1328,"BAGEG":1329,"FAFE":1330,"dBAcBGG":1331,"edcBc":1332,"EAABc":1333,"DFGA":1334,"dge":1335,"BAAGA":1336,"dgbg":1337,"FGED":1338,"Maj":1339,"AAFA":1340,"fedef":1341,"AdcA":1342,"baa":1343,"ĠBA":1344,"edBGB":1345,"efecA":1346,"gfefg":1347,"cBABc":1348,"EEEE":1349,"Acec":1350,"ggdB":1351,"BABcA":1352,"BABcde":1353,"eddcd":1354,"afgfed":1355,"gfedf":1356,"edBe":1357,"edBGA":1358,"Beef":1359,"BAGEF":1360,"dBcAG":1361,"//":1362,"EAB":1363,"eedc":1364,"gfdB":1365,"FEC":1366,"ceec":1367,"DGAB":1368,"BcBG":1369,"efgd":1370,"ĠdB":1371,"eddd":1372,"gfea":1373,"gafd":1374,"fededB":1375,"AFFE":1376,"Ee":1377,"[|":1378,"cff":1379,"eb":1380,"Bcdgd":1381,"cBABcd":1382,"cBAGFE":1383,"fedcA":1384,"dedcAG":1385,"GBAGFDD":1386,"EFABc":1387,"cGG":1388,"Bdcd":1389,"cdBc":1390,"afefd":1391,"DFADFA":1392,"ABdf":1393,"EAce":1394,"gegdg":1395,"caa":1396,"dded":1397,"ABBA":1398,"dBGGBd":1399,"BAGAGF":1400,"BEEE":1401,"dBdg":1402,"AeA":1403,"CDEG":1404,"gbagf":1405,"dBgB":1406,"BEG":1407,"aAg":1408,"ggfe":1409,"geed":1410,"ecAecA":1411,"gfgefg":1412,"DGGG":1413,"BdBB":1414,":|:":1415,"FDCD":1416,"defedB":1417,"Bege":1418,"BAFF":1419,"BDG":1420,"Bdde":1421,"Bdeg":1422,"ABAFD":1423,"bgf":1424,"cD":1425,"fdde":1426,"eAd":1427,"ffe":1428,"dcBGG":1429,"fgef":1430,"dBGBcd":1431,"ĠFG":1432,"BdcBA":1433,"fdAd":1434,"DEGABd":1435,"gagfed":1436,"gagfe":1437,"BcdAF":1438,"ABcAB":1439,"EFGF":1440,"abagf":1441,"Bff":1442,"EDFA":1443,"gcc":1444,"cdBcA":1445,"afecB":1446,"ĠGmixolydian":1447,"dcAd":1448,"gfgd":1449,"ABdB":1450,"DFB":1451,"cAAGA":1452,"AGFGBd":1453,"fafe":1454,"gfefdB":1455,",=":1456,"GGF":1457,"gAA":1458,"fdBB":1459,"fdBAFA":1460,"GGGG":1461,"adfd":1462,"agedBG":1463,"ecgcec":1464,"EGAB":1465,"BddB":1466,"FAAd":1467,"FAAFA":1468,"eca":1469,"egec":1470,"BGAG":1471,"dcBABc":1472,"cAAGG":1473,"EFGB":1474,"dfaafd":1475,"dFcF":1476,"CFA":1477,"GEc":1478,"cBAGE":1479,"ceed":1480,"FGABG":1481,"dcAA":1482,"dGBG":1483,"dBde":1484,"dfedBA":1485,"dBGAGE":1486,"DDED":1487,"dAB":1488,"BAGFGA":1489,"BcBc":1490,"FAE":1491,"gae":1492,"EEF":1493,"ABcBAG":1494,"cAAeAA":1495,"EDEFD":1496,"EGBd":1497,"deed":1498,"DFAdAF":1499,"afdfa":1500,"dcBAB":1501,"BAGAGE":1502,"EAAB":1503,"BBAF":1504,"efece":1505,"Bdded":1506,"FAAB":1507,"AAAB":1508,"AdcAG":1509,"AFdF":1510,"BABdef":1511,"FDEFG":1512,"fbb":1513,"defdcAFA":1514,"edcAG":1515,"FAGE":1516,"FABcd":1517,"FAdfed":1518,"AAGF":1519,":|||":1520,"afdd":1521,"AGABGE":1522,"BGAB":1523,"DGFG":1524,"cAdA":1525,"fdecA":1526,"ecG":1527,"feef":1528,"edBAGA":1529,"FAAF":1530,"fdAF":1531,"fecd":1532,"dcAc":1533,"gfgdBG":1534,"/:||:":1535,"Ba":1536,"Dc":1537,"DBB":1538,"gdg":1539,"FAdef":1540,"GGB":1541,"defgfg":1542,"BGGdGG":1543,"eBe":1544,"cAAG":1545,"FADF":1546,"BGGF":1547,"BBBB":1548,"EEFG":1549,"DGGA":1550,"AddcA":1551,"CEC":1552,"geced":1553,"BedB":1554,"Gdd":1555,"ccB":1556,"BdgdBd":1557,"FAFA":1558,"AAGE":1559,"FEED":1560,"dedcA":1561,"edced":1562,"ABcded":1563,"AFDFE":1564,"fgfd":1565,"dged":1566,"edcAA":1567,"efdd":1568,"cAFD":1569,"ecea":1570,"fea":1571,"eAe":1572,"DFG":1573,"Gcc":1574,"acc":1575,"abg":1576,"eBdB":1577,"FAGF":1578,"GEFD":1579,"AFGED":1580,"dAdd":1581,"AGEDE":1582,"DFBd":1583,"agea":1584,"cEdE":1585,"FDEFD":1586,"ABdefdd":1587,"BEdEBE":1588,"eAB":1589,"FADFA":1590,"FAdAFA":1591,"BGBA":1592,"BGFE":1593,"dBBd":1594,"cecd":1595,"dggf":1596,"GFGBAG":1597,"aaga":1598,"ageedB":1599,"CDB":1600,"GcE":1601,"ccBA":1602,"gded":1603,"efgedB":1604,"GECD":1605,"BcdBA":1606,"efgdBG":1607,"aagf":1608,"BAFEFA":1609,"BBd":1610,"BedBA":1611,"fcec":1612,"cdeA":1613,"DEE":1614,"EDCE":1615,"dAFE":1616,"EFDE":1617,"aage":1618,"edBABd":1619,"GFGAGA":1620,"cGc":1621,"AcBGA":1622,",^":1623,"Dmaj":1624,"agab":1625,"gfdde":1626,"FAABA":1627,"BGBAFA":1628,"fedA":1629,"faged":1630,"dcdefd":1631,"dcAGEA":1632,"Adde":1633,"agfef":1634,"AGFGE":1635,"BcBAGF":1636,"AFEGFDD":1637,"defgdB":1638,"dBcAB":1639,"ADFAG":1640,"bfa":1641,"egedBA":1642,"Bcc":1643,"Bdgd":1644,"BGdB":1645,"AAAc":1646,"FGABd":1647,"dcdB":1648,"dcdAFA":1649,"bagef":1650,"gfgaf":1651,"cAe":1652,"cABA":1653,"BdcAG":1654,"cdd":1655,"BGDGBd":1656,"FDFAd":1657,"FDADFD":1658,"dddfd":1659,"BAGBd":1660,"ABAABc":1661,"ABAABd":1662,"fgfedc":1663,"EDCED":1664,"gAfA":1665,"cdefd":1666,"fedecA":1667,"dcBcA":1668,"eaga":1669,"afde":1670,"FBF":1671,"ADE":1672,"EABc":1673,"ECA":1674,"cFA":1675,"egedBG":1676,"ceAce":1677,"feAce":1678,"DDB":1679,"defdA":1680,"egge":1681,"ABAB":1682,"GABD":1683,"agbga":1684,"dfec":1685,"EGBe":1686,"DDEF":1687,"FFED":1688,"aBgB":1689,"Ġed":1690,"FAdc":1691,"FEFDFA":1692,"egdg":1693,"dcded":1694,"efede":1695,"BFAFE":1696,"eec":1697,"gdBA":1698,"Ġ||":1699,"Ġde":1700,"BAFEF":1701,"cAAGE":1702,"gfgedB":1703,"AAF":1704,"cBAA":1705,"cBBB":1706,"feg":1707,"efgdB":1708,"defecA":1709,"GFEFG":1710,"ABAFE":1711,"Acef":1712,"edBAFA":1713,"BEGB":1714,"efgage":1715,"gbgfaf":1716,"cFAF":1717,"edce":1718,"gfgab":1719,"BBBd":1720,"DDA":1721,"ABAAGE":1722,"BGEFG":1723,"egfag":1724,"-:|":1725,"aag":1726,"BABcdB":1727,"edf":1728,"Bcec":1729,"cABAFA":1730,"DEDC":1731,"gfedcBA":1732,"BGAFD":1733,"ecdB":1734,"efecBA":1735,"ĠBdorian":1736,"Ecc":1737,"eaf":1738,"fcc":1739,"edfd":1740,"BcBAB":1741,"GEEG":1742,"geee":1743,"DDDA":1744,"FGAFD":1745,"GBdGBd":1746,"BGBdg":1747,"GBGB":1748,"cac":1749,"dABA":1750,"gBd":1751,"BABcBA":1752,"effe":1753,"cdefge":1754,"GFEE":1755,"Acf":1756,"dBGdBG":1757,"ABded":1758,"afdg":1759,"efeB":1760,"GBcd":1761,"GBAB":1762,"BdAFE":1763,"BGBc":1764,"BGGFG":1765,"gafg":1766,"efgb":1767,"FGAD":1768,"dBAd":1769,"dBAGF":1770,"dcBAFA":1771,"agfagf":1772,"AFDDEF":1773,"dGeG":1774,"bgdB":1775,"fefgf":1776,"BEEDE":1777,"AFEFA":1778,"abge":1779,"ABGAF":1780,"FGFED":1781,"dfg":1782,"FDG":1783,"dBAcBG":1784,"edcABc":1785,"EBBAB":1786,"GABGE":1787,"FAde":1788,"eccc":1789,"FEDD":1790,"FECE":1791,"geB":1792,"eaafg":1793,"ecAG":1794,"dfafg":1795,"BABGAB":1796,"dGeGdG":1797,"Afed":1798,"eABc":1799,"ĠFE":1800,"BAE":1801,"GABcA":1802,"GEGA":1803,"GEGG":1804,"Bcdecd":1805,"faecd":1806,"egde":1807,"dBAcB":1808,"efedf":1809,"cAAe":1810,"BEFG":1811,"egfde":1812,"dBAFBEE":1813,"/(":1814,"DGF":1815,"cedcBA":1816,"eE":1817,"fdAdfa":1818,"AAe":1819,"FGG":1820,"dede":1821,"dgB":1822,"DCDE":1823,">|":1824,"ggf":1825,"GAGED":1826,"cABcde":1827,"cdea":1828,"cdcBc":1829,"gedBcAA":1830,"ceee":1831,"AFFF":1832,"AFBFAF":1833,"dcBcd":1834,"eaca":1835,"dedcd":1836,"dedBAG":1837,"GFGAF":1838,"FBBAB":1839,"BAGFD":1840,"gabage":1841,"gedBGABd":1842,"eBdBA":1843,"GAd":1844,"cAcd":1845,"cAAd":1846,"BGDG":1847,"GEB":1848,"fdcB":1849,"DEB":1850,"fedBd":1851,"fedBAF":1852,"ABAGED":1853,"dedBc":1854,"BGABd":1855,"fgagf":1856,"GFGAc":1857,"EAAAGA":1858,"fafg":1859,"AFEEFA":1860,"FBFAF":1861,"fgfef":1862,"GFDDE":1863,"FDDADD":1864,"EBG":1865,"bgeg":1866,"cedB":1867,"BABGBd":1868,"edA":1869,"fdefg":1870,"AAd":1871,"gedBc":1872,"efgefg":1873,"faec":1874,"ABAAFA":1875,"DFAdf":1876,"ĠEF":1877,"dcAGF":1878,"AGEA":1879,"edBdef":1880,"EGF":1881,"GdBG":1882,"aaf":1883,"edBcd":1884,"Bcef":1885,"fddf":1886,"fdcAAGG":1887,"BcdG":1888,"cBAcB":1889,"FDAF":1890,"AFGA":1891,"gfedef":1892,"gfegfe":1893,"GBdgfg":1894,"DBA":1895,"FBdB":1896,"Gce":1897,"dAG":1898,"BGcG":1899,"Bcdec":1900,"FEA":1901,"ceB":1902,"faafd":1903,"dedcAF":1904,"DFAdef":1905,"ABcdB":1906,"GEGDG":1907,"fdfece":1908,"cAGEFDD":1909,"fdcABGG":1910,"cEEDD":1911,"fBdB":1912,"edde":1913,"BddBA":1914,"BGcA":1915,"faef":1916,"eeee":1917,"DFAdcd":1918,"dgga":1919,"fAf":1920,"edcdB":1921,"agecd":1922,"BdgdBG":1923,"EAG":1924,"aed":1925,"edefd":1926,"cdcd":1927,"DEGB":1928,"afecd":1929,"ddg":1930,"/|]":1931,"AdFd":1932,"BBBc":1933,"GFEG":1934,"ABAGFG":1935,"efedBd":1936,"CEGE":1937,"GEEcEE":1938,"fecBA":1939,"efgfeg":1940,"fdadbdad":1941,">_":1942,"bged":1943,"fBeB":1944,"BABA":1945,"cAcea":1946,"Bdced":1947,"cdedcB":1948,"afc":1949,"dege":1950,"|||:(":1951,"ABcdefge":1952,"eAAeAA":1953,"bafed":1954,"agaf":1955,"dBAFFEE":1956,",|:":1957,"ĠK":1958,"BddBd":1959,"GFGBdB":1960,"fdfecA":1961,"cBAFA":1962,"gedBGB":1963,"ABABd":1964,"Addfdd":1965,"cEBE":1966,"edefdB":1967,"cFdFcF":1968,"GAGGBd":1969,"Eee":1970,"EBE":1971,"ccd":1972,"cdg":1973,"GFDF":1974,"fdfg":1975,"gebege":1976,"degab":1977,"ecAF":1978,"BGABc":1979,"DEFGE":1980,"AFDFAF":1981,"ecdBA":1982,"Aceg":1983,"dfedB":1984,"gbge":1985,"ĠCdorian":1986,"GdBd":1987,"GABcde":1988,"FABAFA":1989,"FDDF":1990,"FDAD":1991,"gedeg":1992,"defedc":1993,"dBAGAB":1994,"deddBG":1995,"dfef":1996,"DGD":1997,"BcAGE":1998,"BcAFG":1999,"ffff":2000,"efedcd":2001,"gdfd":2002,"cAGcA":2003,"eaageg":2004,"efecd":2005,"edcAGE":2006,"efaaf":2007,"dBGABAA":2008,"FAcf":2009,"ccA":2010,"ĠeAA":2011,"gff":2012,"FAFF":2013,"cdedBG":2014,"GFDC":2015,"gagg":2016,"FDFAF":2017,"gedBAG":2018,"gedBe":2019,"bafdf":2020,"AGEFG":2021,"dcBAFD":2022,"Addc":2023,"cAGc":2024,"cBcdcd":2025,"FBBB":2026,"GABcBA":2027,"cAdcAG":2028,"BdcAB":2029,"ddBd":2030,"ĠDGG":2031,"fecAc":2032,"ABAc":2033,"AGABd":2034,"bgb":2035,"ecdBcAA":2036,"BABcBc":2037,"cAAABc":2038,"fddcdfaf":2039,"cGEG":2040,"|!":2041,"FABA":2042,"cdcBAG":2043,"cege":2044,"deff":2045,"EDDE":2046,"ĠEAA":2047,"BeedB":2048,"Addcdefg":2049,"cBcedc":2050,"fafgfe":2051,"AceAce":2052,"efgea":2053,"agede":2054,"DEGABGG":2055,"aAgAfA":2056,"Acde":2057,"cece":2058,"efef":2059,"BdBcAF":2060,"cBAeA":2061,"egdBc":2062,"gfeB":2063,"EAAABc":2064,"edcAB":2065,"gdBgdB":2066,"gfgag":2067,"gdBGBd":2068,"eaagefge":2069,"cBGB":2070,"BAFED":2071,"GAGA":2072,"GAGFE":2073,"cAGG":2074,"GEAD":2075,"BcdcA":2076,"gedcB":2077,"fae":2078,"fgefd":2079,"ABAFG":2080,"dABG":2081,"dAGFED":2082,"cdeged":2083,"bgab":2084,"bgageg":2085,"edcdcB":2086,"dEE":2087,"dBdB":2088,"dgedBG":2089,"BABe":2090,"efdc":2091,"cAABc":2092,"GEEA":2093,"Bcdedc":2094,"ddA":2095,"deA":2096,"gfegf":2097,"AGEDEG":2098,"AFDAFD":2099,"fefge":2100,"abage":2101,"AecA":2102,"BEA":2103,"GDD":2104,"ffd":2105,"gGG":2106,"GABAGE":2107,"cdfed":2108,"cdedc":2109,"gabag":2110,"cBABGA":2111,"ddcA":2112,"FGAGF":2113,"agefg":2114,"dcAGE":2115,"edcBcA":2116,"aab":2117,"ABdfe":2118,"eaab":2119,"BAGAFD":2120,"BEEF":2121,"AcecAc":2122,"fgfec":2123,"agedc":2124,"DGBGA":2125,"cEdEcE":2126,"Ggg":2127,"bee":2128,"fBgB":2129,"efdcBA":2130,"cdefe":2131,"fdfd":2132,"fdaf":2133,"DEDE":2134,"ecce":2135,"dBGAB":2136,"cBBc":2137,"gedge":2138,"fage":2139,"faea":2140,"DFAG":2141,"GABE":2142,"ecAce":2143,"EDCB":2144,"dcAGA":2145,"DGGAB":2146,"BGABG":2147,"eAAGA":2148,"GFGAFD":2149,"BEFE":2150,"CEAc":2151,"cBcE":2152,"EAAGABcd":2153,"fBf":2154,"abafdf":2155,"cBcdef":2156,"defgaf":2157,"DEGABG":2158,"FFEF":2159,"Gf":2160,"fBd":2161,"BABcB":2162,"cAFF":2163,"FAFG":2164,"GEcEEDD":2165,"ecec":2166,"FEDEFG":2167,"FDDE":2168,"deB":2169,"BAGBcd":2170,"eaged":2171,"GFEFGABc":2172,"dBAdB":2173,"ABcAF":2174,"DFAdfa":2175,"BGAGE":2176,"dfedcB":2177,"dfedcAA":2178,"EDEFG":2179,"efgfga":2180,"BABGED":2181,"Bgf":2182,"egfg":2183,"fgedBA":2184,"BAD":2185,"BcBAF":2186,"GAAGA":2187,"cAE":2188,"BdBAFA":2189,"FADA":2190,"FAdfa":2191,"AAAd":2192,"cBAd":2193,"cBAe":2194,"dBBg":2195,"degedB":2196,"BBBA":2197,"AGGA":2198,"AGGF":2199,"GFEDE":2200,"GBdedB":2201,"dABd":2202,"AGEGED":2203,"GEDC":2204,"ĠBEE":2205,"BeeedB":2206,"dfecA":2207,"gfdec":2208,"afgefded":2209,"AcBAG":2210,"DAF":2211,"TB":2212,"egedB":2213,"FABd":2214,"GEcE":2215,"|:(":2216,"cBABGE":2217,"afegf":2218,"ddBG":2219,"ABF":2220,"fedd":2221,"fagef":2222,"AGBA":2223,"dfga":2224,"dcdede":2225,"BABg":2226,"aaaa":2227,"fgab":2228,"bgec":2229,"efgab":2230,"DEGBA":2231,"ĠFdorian":2232,"dfdecA":2233,"AaAg":2234,"dBAFDEFA":2235,"bgagbg":2236,"EGGG":2237,"FFE":2238,"abga":2239,"fcAc":2240,"GAFG":2241,"cAeAfAeA":2242,"FEEF":2243,"FGBdB":2244,"DFAc":2245,"EDG":2246,"AGEDB":2247,"AddcAG":2248,"gdBc":2249,"efeedc":2250,"gefdedBd":2251,"GABce":2252,"geceg":2253,"cecB":2254,"cecBdB":2255,"CDEC":2256,"egeedB":2257,"BFAFEF":2258,"Ed":2259,"Ġgf":2260,"BABAG":2261,"edcde":2262,"cABGE":2263,"BGEF":2264,"ABe":2265,"ceef":2266,"bagedB":2267,"GFEFED":2268,"GBed":2269,"ABAFED":2270,"EDA":2271,"dBGBdB":2272,"dAGF":2273,"dAFG":2274,"ABcdec":2275,"adfa":2276,"fgffed":2277,"gbb":2278,"fgedBd":2279,"bfd":2280,"cDD":2281,"cedcB":2282,"fefed":2283,"cAGB":2284,"BdcAA":2285,"fdedB":2286,"fdfagf":2287,"AABd":2288,"afbfaf":2289,"ceBc":2290,"feA":2291,"ABAAFD":2292,"dcdec":2293,"dcdfa":2294,"DGGFGA":2295,"BAFDE":2296,"agfefg":2297,"BEEDEFGA":2298,"BABdf":2299,"abf":2300,"BGBdcB":2301,"efgfge":2302,"FDECD":2303,"gedcBGG":2304,"eaaaga":2305,"GcA":2306,"fgfg":2307,"fgedB":2308,"BGBB":2309,"fdfe":2310,"DEDF":2311,"BcdBc":2312,"ceaf":2313,"feB":2314,"AFDEFA":2315,"eeB":2316,"ABAGEG":2317,"EFF":2318,"gfgdBd":2319,"dcBAFE":2320,"AFAA":2321,"gdcB":2322,"DGGGFG":2323,"AaA":2324,"FDADBDAD":2325,"FBA":2326,"cfe":2327,"cefg":2328,"BAAd":2329,"efdf":2330,"GABAG":2331,"BdBGA":2332,"BGc":2333,"fdedcA":2334,"fdefdB":2335,"gagef":2336,"FEG":2337,":||:|":2338,"dea":2339,"GGBd":2340,"dfA":2341,"dcAGED":2342,"ffec":2343,"AGFGAB":2344,"bafb":2345,"edcdec":2346,"GBAc":2347,"Beecd":2348,"CDEFG":2349,"BGEEDE":2350,"[|:":2351,"abgaf":2352,"eBG":2353,"cABcA":2354,"BdGB":2355,"Bdgb":2356,"BGdGBd":2357,"afegfdd":2358,"ĠDG":2359,"EEB":2360,"EEG":2361,"FGABcA":2362,"faafe":2363,"GBF":2364,"dBAGE":2365,"gfecd":2366,"EDCA":2367,"FEDAD":2368,"EGce":2369,"AFABd":2370,"AFAdf":2371,"fgagfe":2372,"agfdd":2373,"fefdB":2374,"edBdBG":2375,"GBAGE":2376,"gabge":2377,"dBcABGAF":2378,"EBBA":2379,"fdBBAF":2380,"DGBdB":2381,"Afe":2382,"CDEFGA":2383,"EGABc":2384,"Tc":2385,"dGGG":2386,"eafged":2387,"edefe":2388,"Bdge":2389,"FAGFED":2390,"BGEA":2391,"AAFD":2392,"ecgcacgc":2393,"cBAFE":2394,"dBGABd":2395,"fedcde":2396,"ABcef":2397,"ecAFG":2398,"dfAd":2399,"eAf":2400,"EGGFG":2401,"ABdd":2402,"EAGA":2403,"efedcA":2404,"afdfg":2405,"fefgfg":2406,"fafgec":2407,"dfafdf":2408,"eaagaged":2409,"gbagfe":2410,"Befgfe":2411,"EABcBA":2412,"Tf":2413,"aea":2414,"dgfe":2415,"daa":2416,"Ġcd":2417,"edBAF":2418,"gfefd":2419,"FAcA":2420,"BGBdB":2421,"AABAG":2422,"cBAGED":2423,"geb":2424,"afgfe":2425,"FGABcdef":2426,"eaec":2427,"fgec":2428,"GBdG":2429,"FEDFE":2430,"EGDG":2431,"edBAGE":2432,"bafedB":2433,"efgag":2434,"dfdcec":2435,"cBGF":2436,"cBGGB":2437,"bgee":2438,"GECED":2439,"EFGEFG":2440,"AFGEFDD":2441,"Addefded":2442,"-:||:":2443,"Bge":2444,"dABAFA":2445,"fG":2446,"BAGEEDD":2447,"edBcBA":2448,"FABde":2449,"BGdBA":2450,"BGBAFD":2451,"GFGBd":2452,"ecac":2453,"FEDEFA":2454,"FEEDE":2455,"feded":2456,"ceae":2457,"bagfg":2458,"edBedB":2459,"ABdefd":2460,"AGABcd":2461,"cBcBA":2462,"BAFAB":2463,"FBBA":2464,"dfedcA":2465,"FEFGE":2466,"abaage":2467,"efaec":2468,"BABce":2469,"fedfedBA":2470,",/|":2471,"FGFD":2472,"aBB":2473,"aeaa":2474,"eF":2475,"eddc":2476,"GAGFG":2477,"cAGEG":2478,"gfag":2479,"fdefd":2480,"fdfafd":2481,"DEC":2482,"FEFGAB":2483,"geaged":2484,"AdF":2485,"Adfe":2486,"AdBcAG":2487,"DDFA":2488,"efgef":2489,"AGBd":2490,"defdef":2491,"GBg":2492,"dgdd":2493,"dggg":2494,"dfb":2495,"edBGAB":2496,"edBBAB":2497,"dBGFGA":2498,"dcdAFD":2499,"AGEC":2500,"cccc":2501,"fafedB":2502,"edega":2503,"adbdad":2504,"dfadfa":2505,"BAGEDE":2506,"Aeed":2507,"ECC":2508,"fgecd":2509,"cFAc":2510,"ĠFA":2511,"ĠcB":2512,"GAGFED":2513,"BdBAFD":2514,"FAce":2515,"cdedB":2516,"Bcdefge":2517,"ABE":2518,"fedBc":2519,"ceeecA":2520,"dBAGA":2521,"deddcB":2522,"dedBGB":2523,"ecAAce":2524,"dAf":2525,"dcdA":2526,"ĠEmixolydian":2527,"edcedc":2528,"EAE":2529,"ABcdeg":2530,"AFDFED":2531,"AGAc":2532,"cBcB":2533,"EAAABd":2534,"AAAf":2535,"eBfBeB":2536,"cdefa":2537,"BBBf":2538,"GDGA":2539,"BGdGeGdG":2540,"ABdefded":2541,"bgafgedB":2542,"Bef":2543,"EGED":2544,"Gmaj":2545,"dce":2546,"|-":2547,"ĠGF":2548,"Ġfe":2549,"BdAc":2550,"cdedcd":2551,"BGBG":2552,"fdge":2553,"fdff":2554,"gagfg":2555,"gagedB":2556,"gabagf":2557,"cBAcBAGB":2558,"afedBA":2559,"ddBA":2560,"BAGBAG":2561,"FGABA":2562,"faefd":2563,"GFEDC":2564,"gfegfedf":2565,"ecAd":2566,"ecAdBG":2567,"dcAGFG":2568,"EGFA":2569,"dcBAGA":2570,"agfa":2571,"eAAfAA":2572,"BAGABA":2573,"cBcAdc":2574,"fafecA":2575,"BEEB":2576,"BABdcB":2577,"edBde":2578,"gegde":2579,"EDEGA":2580,"efgfef":2581,"gfgagf":2582,"Adfdedfd":2583,"AFDEFEE":2584,"GFGEFG":2585,"eaafgedB":2586,"dBgBA":2587,"ADBD":2588,"BBABd":2589,"BBcB":2590,"FGFGA":2591,"sl":2592,"ĠAF":2593,"eddB":2594,"edea":2595,"efdBA":2596,"GAFE":2597,"GAAG":2598,"cAFE":2599,"FAdAFD":2600,"cdcAG":2601,"GEEF":2602,"cBAeAfAeA":2603,"cBBAB":2604,"fedfaf":2605,"FGABcd":2606,"gfedBd":2607,"GFEFGA":2608,"egc":2609,"GBD":2610,"ABABc":2611,"GABe":2612,"dBGGB":2613,"dcdfe":2614,"AGEGA":2615,"gggg":2616,"ffgf":2617,"agfdcA":2618,"AGABA":2619,"fefdef":2620,"BdBBAF":2621,"bafef":2622,"efgagf":2623,"GBAGEG":2624,"egfagedB":2625,"gbeg":2626,"fBBAB":2627,"Beeede":2628,"BAGEDB":2629,"cAGEFG":2630,"DGBdg":2631,"fbba":2632,"GEDEGABd":2633,"cABGAGEG":2634,"fadafa":2635,"BDE":2636,"DGE":2637,"GDGB":2638,"ide":2639,"Bddc":2640,"BdBAFE":2641,"fda":2642,"DEGE":2643,"ABEE":2644,"fedBB":2645,"AddB":2646,"defdefdB":2647,"gfedcABc":2648,"fgg":2649,"dBAGFE":2650,"ABAd":2651,"deddef":2652,"dedgd":2653,"edBg":2654,"dAFDFA":2655,"BAFd":2656,"AGEEDE":2657,"efeefg":2658,"edBAFD":2659,"bgdgbg":2660,"BEEBEE":2661,"BcBAc":2662,"dBBBAG":2663,"ABGEG":2664,"GABcdefg":2665,"FDFAGF":2666,"gaggfe":2667,"Addcdfed":2668,"dDc":2669,"eaaage":2670,"slide":2671,",|]":2672,"CDF":2673,"GGAG":2674,"aeg":2675,"aecB":2676,"cfec":2677,"egfedB":2678,"Bcg":2679,"cABGG":2680,"BcdAd":2681,"ecBAFA":2682,"cBAE":2683,"FDFG":2684,"/|=":2685,"DDF":2686,"GFEFD":2687,"GBBA":2688,"dBAGED":2689,"ABAAGF":2690,"dgb":2691,"dfB":2692,"DGGF":2693,"Addcde":2694,"agfdde":2695,"BAGABG":2696,"adbd":2697,"abgeg":2698,"DEFAd":2699,"agedg":2700,"agedBe":2701,"egfdcA":2702,"fBBc":2703,"GFDDF":2704,"GBGFAF":2705,"BdGdBd":2706,"Bede":2707,"TA":2708,"bba":2709,"cedcA":2710,"eGG":2711,"gge":2712,"|:|":2713,"ĠABc":2714,"edge":2715,"gfefge":2716,"FADE":2717,"FADD":2718,"FAAdef":2719,"BGDB":2720,"fddedd":2721,"eccd":2722,"cBABG":2723,"afgedB":2724,"gedcde":2725,"Adefed":2726,"GGGA":2727,"feee":2728,"BAGd":2729,"BBBg":2730,"faafg":2731,"eagfed":2732,"egga":2733,"ABAdA":2734,"ABAFDF":2735,"dBGGFG":2736,"dcABc":2737,"AFDG":2738,"eaabaged":2739,"Acecd":2740,"egfd":2741,"aca":2742,"abaged":2743,"edcBAGFE":2744,"DEDDEG":2745,"cAGEF":2746,"dAFdAF":2747,"gfgaga":2748,"eAcAeAcA":2749,"cdedcAGE":2750,"AcecAcec":2751,"/_":2752,"ADA":2753,"CFAc":2754,"dafd":2755,"dgedB":2756,"dFAF":2757,"eAdA":2758,"BAAF":2759,"efB":2760,"fdedBA":2761,"gaa":2762,"eceg":2763,"FEDEF":2764,"gegfdf":2765,"afaf":2766,"ddde":2767,"gedcBAGB":2768,"ABBAB":2769,"gfedcdef":2770,"dBAGEG":2771,"GBdBA":2772,"Aced":2773,"BABE":2774,"aafd":2775,"ABcdcd":2776,"cAAg":2777,"ecegfe":2778,"EAAG":2779,"BGEFGA":2780,"fAeA":2781,"fgfdc":2782,"FAdfe":2783,"cEc":2784,"GAGGED":2785,"cAGEC":2786,"ADDD":2787,"cedBGB":2788,"fbf":2789,"fBBf":2790,"Beedefed":2791,"dBcABGG":2792,"eAced":2793,"BDGB":2794,"bgfg":2795,"cefe":2796,"cAf":2797,"cAFGA":2798,"BdedBA":2799,"gfgf":2800,"GFDEF":2801,"fdBAGF":2802,"BcdBAFDF":2803,"eced":2804,"afga":2805,"ABg":2806,"ABBB":2807,"ĠDFA":2808,"AdcB":2809,"Adfed":2810,"efgec":2811,"eeed":2812,"ecAe":2813,"GBdc":2814,"dffef":2815,"AGEc":2816,"efedef":2817,"afdgec":2818,"BGGDGG":2819,"ABcdcB":2820,"dGBA":2821,"GFGAG":2822,"edegfe":2823,"GABdg":2824,"fgfeg":2825,"FEFDE":2826,"eBBA":2827,"Beeefg":2828,"DEFGABcA":2829,"gedBAGEG":2830,"defgafge":2831,"eaagagef":2832,"dfafgfed":2833,"FFA":2834,"GdG":2835,"aefa":2836,"cGA":2837,"ccde":2838,"dABc":2839,"Ġge":2840,"efA":2841,"efdA":2842,"GAE":2843,"cAEAcA":2844,"BdBc":2845,"gfgfed":2846,"gfefdec":2847,"cdefed":2848,"GEDEGA":2849,"FDADFA":2850,"dBF":2851,"gedBAGEF":2852,"EEFA":2853,"egdc":2854,"GBEG":2855,"eeef":2856,"DFAAFA":2857,"dBGd":2858,"dcBAF":2859,"AFAF":2860,"Adddcd":2861,"agfge":2862,"bagb":2863,"bagba":2864,"dcBgdB":2865,"dBdgdB":2866,"edcdefge":2867,"GBAFD":2868,"DEFAB":2869,"eBeg":2870,"efgfec":2871,"afgefd":2872,"Bdefgfed":2873,"DEDDFA":2874,"AcBGAGEG":2875,"gedega":2876,"CEGc":2877,"dgBgdg":2878,"Bffef":2879,"DGEG":2880,"bbag":2881,"eBc":2882,"fbaf":2883,"edefge":2884,"cAAF":2885,"cAGFED":2886,"BdBGB":2887,"BdcBAG":2888,"BGGBd":2889,"BGDGB":2890,"fdgfed":2891,"fdgdfd":2892,"DEDG":2893,"AAa":2894,"gagfd":2895,"gedcd":2896,"ceag":2897,"ceecd":2898,"BBf":2899,"dced":2900,"dBAFG":2901,"dBABde":2902,"ABAa":2903,"EDCDE":2904,"dBGBAG":2905,"DGGFGABc":2906,"|][|":2907,"BABGA":2908,"afddcd":2909,"afdfaf":2910,"agfdef":2911,"agfddf":2912,"Bgec":2913,"Aceaec":2914,"GABde":2915,"GABdBA":2916,"edcdef":2917,"acgc":2918,"gBfB":2919,"dfafd":2920,"cBcdc":2921,"dBcAF":2922,"dFd":2923,"agaecA":2924,"ceaecA":2925,"fcf":2926,"fdcdec":2927,"fdddef":2928,"gbaged":2929,"afgefde":2930,"eaafgfed":2931,"AGABcBcd":2932,"--":2933,">>":2934,"Agg":2935,"Aaga":2936,"EFEDB":2937,"GMaj":2938,"befe":2939,"cEG":2940,"cBGE":2941,"cffef":2942,"fBBB":2943,"gbga":2944,"BAcB":2945,"BdBAB":2946,"geeg":2947,"dBed":2948,"afedB":2949,"AdBA":2950,"bageg":2951,"efggfe":2952,"faecB":2953,"GFEC":2954,"GFEDB":2955,"DFAcBA":2956,"DFAFBFAF":2957,"ecAa":2958,"ecAcB":2959,"ecAGFE":2960,"GBdefg":2961,"Beefg":2962,"AGEF":2963,"ABdBAF":2964,"afdA":2965,"afddef":2966,"Addfed":2967,"agfag":2968,"AGAG":2969,"bgef":2970,"bgdg":2971,"CEAG":2972,"gefdcA":2973,"cBcdcB":2974,"defgag":2975,"edefgfed":2976,"ABAGB":2977,"DEGAGA":2978,"cBGGA":2979,"cdefgece":2980,"BGGGBd":2981,"EGBEGB":2982,"CCC":2983,"Beedefge":2984,"DBDAF":2985,"AGFGABcA":2986,"egdBBAA":2987,"dBBgBB":2988,"-||":2989,"AcAF":2990,"FGEG":2991,"Ggf":2992,"Te":2993,"dFA":2994,"gga":2995,"gce":2996,"BAe":2997,"Bdefge":2998,"AAce":2999,"cBABcdef":3000,"FDFGA":3001,"afea":3002,"fedg":3003,"FGBAG":3004,"efgefgaf":3005,"fagfe":3006,"AGBAG":3007,"eaee":3008,"fgd":3009,"ABAAGA":3010,"ABAGFED":3011,"ABAFB":3012,"deddcA":3013,"DFAFD":3014,"DFABAF":3015,"EDF":3016,"dBGE":3017,"eAcd":3018,"dcdBADFA":3019,"edcBcBAG":3020,"gfgb":3021,"AGEGAB":3022,"afdedB":3023,"fgae":3024,"efdBd":3025,"CEFG":3026,"BAFAd":3027,"GBAFE":3028,"agega":3029,"agedBA":3030,"BGBdef":3031,"dfaafa":3032,"FDEC":3033,"gfefBB":3034,"DEFGB":3035,"Ġ|:|":3036,"ECG":3037,"ABdefedB":3038,"Beedegfe":3039,"aAAgAA":3040,"eBegfe":3041,"dcdefdAF":3042,"<^":3043,"AC":3044,"Acdef":3045,"BBAGA":3046,"aecd":3047,"bfdB":3048,"dFAd":3049,"dgfedcBA":3050,"gBg":3051,"ĠV":3052,"Ġef":3053,"Ġag":3054,"BcBAGA":3055,"GABAGF":3056,"GAFGE":3057,"cAec":3058,"Bdfe":3059,"BdedBd":3060,"cdefga":3061,"fdefge":3062,"fdcAF":3063,"DEFED":3064,"AABG":3065,"ecef":3066,"eccBc":3067,"cBABcA":3068,"cBABAF":3069,"ddcBA":3070,"BBg":3071,"EEFE":3072,"fac":3073,"deffed":3074,"defdg":3075,"eaed":3076,"eagf":3077,"GBGA":3078,"dBABGA":3079,"ABcBcd":3080,"ABcAGE":3081,"ABAD":3082,"dfff":3083,"dfefdB":3084,"BeBdB":3085,"BGAGED":3086,"agfga":3087,"eAAc":3088,"eaae":3089,"fefdBA":3090,"AGFGFE":3091,"EFGBAG":3092,"dfedBd":3093,"edcAd":3094,"egfdec":3095,"dfaa":3096,"cAGEA":3097,"dBGAGA":3098,"fdBBcd":3099,"dBAFEFD":3100,"fdedfd":3101,"GcEcGc":3102,",|(":3103,"BBG":3104,"Bgfe":3105,"BedcBA":3106,"Begb":3107,"CFAF":3108,"ECB":3109,"aefe":3110,"cedBA":3111,"eafg":3112,"fgegdB":3113,"effef":3114,"GAce":3115,"BdBAG":3116,"cdBAF":3117,"fdfga":3118,"AAcA":3119,"ecee":3120,"cBAGAB":3121,"ABD":3122,"degfe":3123,"BBe":3124,"FGAA":3125,"FGAABc":3126,"AGD":3127,"GFEGFDD":3128,"fgbag":3129,"ABcE":3130,"ABcea":3131,"Acefec":3132,"dAde":3133,"FEDCB":3134,"DGBGdGBG":3135,"BAFFEF":3136,"ABdede":3137,"AFAc":3138,"eAAf":3139,"eaaefg":3140,"dGd":3141,"GEEBEE":3142,"BAFAFD":3143,"fAfA":3144,"AFEA":3145,"BABdBG":3146,"gefdB":3147,"GBAGF":3148,"EDEFGA":3149,"fddadd":3150,"gecg":3151,"ABGF":3152,"cBcdefge":3153,"dBGABA":3154,"ceagfe":3155,"GABGD":3156,"EFEG":3157,"agfedcBA":3158,"AcAE":3159,"BcAAc":3160,"GECEG":3161,"FGFF":3162,"afgefdd":3163,"GEBEGE":3164,"FAEAD":3165,"afdfafdf":3166,"Agf":3167,"FGFG":3168,"HA":3169,"abgag":3170,"eece":3171,"eBGE":3172,"gBdg":3173,"ĠGE":3174,"eda":3175,"edgedB":3176,"edefga":3177,"cAdB":3178,"BdGBd":3179,"gfee":3180,"cdee":3181,"BGFGE":3182,"AAf":3183,"AAABc":3184,"gafge":3185,"ecgc":3186,"cBAa":3187,":||[":3188,"eggf":3189,"GBDGB":3190,"ABADFA":3191,"dedA":3192,"ecABAF":3193,"EFGFGA":3194,"EGDE":3195,"aaba":3196,"ABdA":3197,"ABdefg":3198,"EAEA":3199,"FFFA":3200,"efedcBA":3201,"afdafd":3202,"cdeABc":3203,"eAABc":3204,"AGAF":3205,"dGBGdG":3206,"gedBBAAG":3207,"bgagef":3208,"faffed":3209,"BABdBA":3210,"edcdeg":3211,"edcAAB":3212,"eBee":3213,"eBBAB":3214,"efgfag":3215,"cAFAc":3216,"AdfdAdfd":3217,"fgfedB":3218,"fafdef":3219,"fAAeAA":3220,"FGFEF":3221,"Adfagf":3222,"edegdB":3223,"dBAFADD":3224,"bgafgefd":3225,"gfeagf":3226,"BBGB":3227,"FBc":3228,"GDEG":3229,"GBBB":3230,"dgfed":3231,"dfdf":3232,"eBg":3233,"ĠL":3234,"edfed":3235,"BcABc":3236,"Bdce":3237,"FABcBA":3238,"cdG":3239,"GFDB":3240,"GEGB":3241,"DEA":3242,"AAg":3243,"gaggdB":3244,"Bcdd":3245,"ecfcec":3246,"cBAABc":3247,"dBBAFA":3248,"afgf":3249,"affed":3250,"cBGA":3251,"AdFA":3252,"AdAF":3253,"ceac":3254,"DDDFA":3255,"EEEB":3256,"AFFA":3257,"faegf":3258,"defag":3259,"eggfg":3260,"GBdcBA":3261,"dBGDGB":3262,"dcAFA":3263,"Beefee":3264,"-|-":3265,"AFAdef":3266,"AFAdAF":3267,"fgage":3268,"BGGg":3269,"cAAf":3270,"eaabag":3271,"BEED":3272,"dfedBAFA":3273,"GBAGFE":3274,"fgfde":3275,"AAAe":3276,"EDEGAB":3277,"DGGBAG":3278,"dfdB":3279,"dBGAFD":3280,"gfefde":3281,"aecea":3282,"gfgeag":3283,"BAGFEFGA":3284,"efeecA":3285,"FAAdAA":3286,"Befg":3287,"CEF":3288,"CDG":3289,"Dddcd":3290,"EFDF":3291,"GC":3292,"GGFE":3293,"bBB":3294,"dga":3295,"eea":3296,"gdgg":3297,"edG":3298,"GABAGA":3299,"cdcAF":3300,"DEGAG":3301,"ecBG":3302,"geag":3303,"dBBAG":3304,"dBGABc":3305,"afff":3306,"ddded":3307,"fedBAB":3308,"deged":3309,"AdBAFD":3310,"bagage":3311,"FGAcAG":3312,"faag":3313,"fafdf":3314,"faafa":3315,"faegfdd":3316,"fggf":3317,"dBADFA":3318,"gfeedB":3319,"ABcBAF":3320,"GABGAB":3321,"ecAE":3322,"GBdd":3323,"GBddBd":3324,"gfgde":3325,"AGEFGE":3326,"EAcBA":3327,"BGAGEF":3328,"afdfed":3329,"AFDDED":3330,"DFBF":3331,"AGAd":3332,"DADFA":3333,"fefagf":3334,"dBdeg":3335,"fgff":3336,"FEFGFG":3337,"BGBdBG":3338,"dBBBAB":3339,"gabc":3340,"abagfe":3341,"BcBBAG":3342,"edcBAB":3343,"gfgafd":3344,"Bcdefgfed":3345,"dAFAD":3346,"dAFAdAFA":3347,"BGFGBd":3348,"fdecdBAF":3349,"AGFAGF":3350,"AFDEFD":3351,"fgedBc":3352,"FADAFADA":3353,"GBEBGB":3354,"faaafd":3355,"Aed":3356,"FBdf":3357,"cfA":3358,"eEE":3359,"fefe":3360,"tr":3361,"Âł":3362,"BcBcd":3363,"BcAc":3364,"cAcA":3365,"cAEA":3366,"BdBAGF":3367,"FAdB":3368,"BGBcd":3369,"fdBc":3370,"ecedBG":3371,"cBAGFG":3372,"FDCA":3373,"fedefd":3374,"ĠDF":3375,"BAGD":3376,"DDG":3377,"EEA":3378,"defafe":3379,"gfedcBAG":3380,"eagfe":3381,"GFEDEF":3382,"ecAAGE":3383,"GBddBG":3384,"AcBc":3385,"eAed":3386,"dcdBAF":3387,"EGBG":3388,"AFAAFA":3389,"AddA":3390,"dGcG":3391,"cBcef":3392,"bgage":3393,"bafg":3394,"Acegfe":3395,"EFGAFD":3396,"AAAa":3397,"EFAc":3398,"agedcA":3399,"gbgf":3400,"dBBfBB":3401,"fBbB":3402,"DGGBGG":3403,"cdefgfed":3404,"agabg":3405,"ADFAd":3406,"AGGB":3407,"cAFGBd":3408,"EFEEFG":3409,":|]|:":3410,"GABGABcA":3411,"gabgaged":3412,"agbgagef":3413,"degabgg":3414,"Bgfg":3415,"EAGE":3416,"EGEG":3417,"FFG":3418,"aedcBA":3419,"ccdc":3420,"dgedBA":3421,"eeg":3422,"gged":3423,"BAdA":3424,"edec":3425,"ededB":3426,"edBGBd":3427,"efecB":3428,"GAf":3429,"GAGFGA":3430,"Bdgf":3431,"BdABG":3432,"FAAG":3433,"cdBd":3434,"GFDFA":3435,"AAABA":3436,"Bcdefd":3437,"Bcdefe":3438,"FEFAB":3439,":||||:":3440,"BAGGAB":3441,"AFB":3442,"AFcFdFcF":3443,"eagedB":3444,"GFEB":3445,"fgB":3446,"ABAE":3447,"ecABc":3448,"eAgA":3449,"dcAcd":3450,"dcAdcA":3451,"dcAGFDD":3452,"GFGBA":3453,"gfgbge":3454,"ABdefe":3455,"ggge":3456,"BGABcA":3457,"afdB":3458,"afdAdf":3459,"BEGE":3460,"GEEB":3461,"BGEBGE":3462,"AGFDFA":3463,"edegab":3464,"dBdedB":3465,"gefdedBA":3466,"edcdcA":3467,"gBf":3468,"ABGED":3469,"efaef":3470,"FDEDB":3471,"fdecdBAG":3472,"eaagabag":3473,"dBAcBEE":3474,"Aec":3475,"AcAG":3476,"CDC":3477,"CDED":3478,"EBA":3479,"Gcd":3480,"beg":3481,"BAGEE":3482,"edgd":3483,"efeA":3484,"efff":3485,"||^":3486,"cAGFG":3487,"cAdBc":3488,"Bddcd":3489,"BdgB":3490,"FAGED":3491,"DEED":3492,"AABde":3493,"gac":3494,"BcdAGFDD":3495,"geae":3496,"FDGD":3497,"dddc":3498,"/|(":3499,"gedcBA":3500,"degg":3501,"feec":3502,"efgB":3503,"AFcFAF":3504,"fagfegfe":3505,"AGc":3506,"defdBA":3507,"gfedcA":3508,"gfedcd":3509,"dBAFED":3510,"dBAABd":3511,"GBdgfe":3512,"dAFAd":3513,"ggga":3514,"fgaefg":3515,"ABcdefga":3516,"fefafd":3517,"BGEB":3518,"bafafe":3519,"BgdB":3520,"BABdAF":3521,"efgafd":3522,"dfedc":3523,"efgfd":3524,"BAFDFA":3525,"dAFd":3526,"AFFdFF":3527,"FDFABc":3528,"cAGAcd":3529,"cacB":3530,"GEFGFE":3531,"BcAAB":3532,"cegece":3533,"fdAFG":3534,"geaag":3535,"EDEFGFGA":3536,"FEDADBDAD":3537,"dBeBdB":3538,"FAdAFAdA":3539,"agfagfeg":3540,"ABGG":3541,"Bfd":3542,"BBAFA":3543,"CDA":3544,"EGABA":3545,"GcB":3546,"adf":3547,"cfaf":3548,"decB":3549,"fF":3550,"fcAF":3551,"BABdB":3552,"edAB":3553,"BcBGA":3554,"GAAA":3555,"GAdA":3556,"GAcde":3557,"BdBAGA":3558,"cdBB":3559,"cdcAc":3560,"fdcdef":3561,"BcddBG":3562,"gededB":3563,"feda":3564,"FGBd":3565,"GGGB":3566,"baaf":3567,"baag":3568,"DDDF":3569,"fab":3570,"egdBBA":3571,"GBEGB":3572,"dBAdBA":3573,"dedBAB":3574,"ecAAcA":3575,"dgba":3576,"dBGD":3577,"dcdeg":3578,"dcdecA":3579,"FEDADFD":3580,"DGGFGABd":3581,"ggec":3582,"BGAGBG":3583,"efedA":3584,"cdegf":3585,"fgaec":3586,"BGGd":3587,"eaaegg":3588,"edBAd":3589,"GFGABABc":3590,"CEGFE":3591,"dcBGA":3592,"BGEDE":3593,"ecdBcABG":3594,"GEGc":3595,"GABdgedB":3596,"gefded":3597,"GBAGED":3598,"agedeg":3599,"cAGEFD":3600,"agaba":3601,"GABcdBGB":3602,"fdcAGABc":3603,"dBAGBd":3604,"caBg":3605,"dBcAFA":3606,"EDCDEG":3607,"abafed":3608,"âĢĿ":3609,"fdgefd":3610,"fAdfe":3611,"gdcBdG":3612,"BGcGBG":3613,"/:|[":3614,"16":3615,"BDGBd":3616,"DAB":3617,"EcE":3618,"EFDD":3619,"cEA":3620,"dDFA":3621,"dgegdB":3622,"gBe":3623,"ggag":3624,"ĠcA":3625,"BAcA":3626,"BcBAFA":3627,"efded":3628,"||]":3629,"GABABc":3630,"cAGEE":3631,"cABcdefg":3632,"Bddg":3633,"BddAdd":3634,"cdBAG":3635,"BGEFGE":3636,"GFF":3637,"fdBcd":3638,"fdgfe":3639,"Bcdfe":3640,"FEEA":3641,"FDGG":3642,"afedc":3643,"fedcBc":3644,"degB":3645,"Adfafd":3646,"BBBe":3647,"DDAG":3648,"DDDAD":3649,"EEEA":3650,"dcBdcB":3651,"defagf":3652,"defdcdec":3653,"dBAFDF":3654,"ABcABG":3655,"dedg":3656,"ĠAc":3657,"ecABcd":3658,"dgbgagbg":3659,"AcBGG":3660,"dcdBcd":3661,"FEDd":3662,"FEDADFA":3663,"ABdAB":3664,"FFFF":3665,"afdcBA":3666,"dcBABG":3667,"fgaagf":3668,"agfde":3669,"AGAcBA":3670,"AGAcde":3671,"BAGAF":3672,"fefgfe":3673,"fafa":3674,"EFGAGF":3675,"EFGABcde":3676,"CDFG":3677,"AAAeA":3678,"abaa":3679,"DEFGAF":3680,"dfdc":3681,"fdBfdB":3682,"AcBAGEE":3683,"eAcAeA":3684,"eggged":3685,"CCG":3686,"decBAG":3687,"CEAce":3688,"gedBGABG":3689,"AFdFE":3690,"gfgedBGB":3691,"Aef":3692,"CCB":3693,"DDEG":3694,"DFDA":3695,"DMaj":3696,"EcBA":3697,"ECD":3698,"FC":3699,"FcAF":3700,"FDED":3701,"GBGE":3702,"aece":3703,"fBdf":3704,"gBA":3705,"gdcBAG":3706,"|>":3707,"Ġfg":3708,"BAABA":3709,"Bca":3710,"Bcefe":3711,"cAABcded":3712,"Bdfb":3713,"BGGAGG":3714,"fdgf":3715,"fddA":3716,"fdBABd":3717,"DEEE":3718,"gaga":3719,"BcdBe":3720,"ecBdcA":3721,"geef":3722,"geaf":3723,"dBBc":3724,"ddedc":3725,"/|[":3726,"gedcAG":3727,"fedcAA":3728,"fedefee":3729,"bafde":3730,"defdefge":3731,"gfedA":3732,"DFAGBd":3733,"ecAcec":3734,"Acfa":3735,"dfc":3736,"edBBAG":3737,"EFB":3738,"BAFGE":3739,"AGEAGE":3740,"afdef":3741,"AFDA":3742,"eAAe":3743,"cBcecA":3744,"DADBD":3745,"BAFADD":3746,"fefded":3747,"BEEFG":3748,"GABdBG":3749,"EFGABA":3750,"EFAF":3751,"agedcAA":3752,"FAFDEF":3753,"cAcBGB":3754,"FAdF":3755,"cEAc":3756,"efgfdB":3757,"DEFGAc":3758,"dAFGFE":3759,"AEAc":3760,"Aaaf":3761,"bgeedB":3762,"BABcdAFA":3763,"fafde":3764,"dBcABG":3765,"FEFAGF":3766,"ceAece":3767,"geaaf":3768,"âĢĻ>":3769,"AFDFAFDF":3770,"FADFAD":3771,"Agfe":3772,"AEFG":3773,"AcAc":3774,"BFAB":3775,"EBe":3776,"ECDE":3777,"Gcec":3778,"cce":3779,"cedBG":3780,"eded":3781,"edeA":3782,"BcBAGB":3783,"efafed":3784,"GAGB":3785,"GABGBd":3786,"BddBc":3787,"cda":3788,"cdAFA":3789,"GECDE":3790,"BcdBAG":3791,"Bcdcde":3792,"ecBABc":3793,"dBeBd":3794,"cBEE":3795,"fedBdB":3796,"deAA":3797,"AdBc":3798,"babc":3799,"defA":3800,"defdd":3801,"fgefdB":3802,"deddBd":3803,"dggfd":3804,"dfgfed":3805,"dcAAB":3806,"Beefe":3807,"BeGe":3808,"FEDG":3809,"FEDcBA":3810,"BAFFA":3811,"DBBAB":3812,"ABdF":3813,"ABdedB":3814,"cdeB":3815,"Addded":3816,"BGGD":3817,"AFDFGA":3818,"eaaba":3819,"BEGA":3820,"cBcEFG":3821,"fAg":3822,"GABdBd":3823,"EFGBA":3824,"FBBcd":3825,"DEFABc":3826,"gbe":3827,"cAcedc":3828,"BAGFGE":3829,"gdBGAB":3830,"GAGGAB":3831,"FGEF":3832,"BAFEE":3833,"cAAAce":3834,"fdBecA":3835,"ceaece":3836,"fgee":3837,"AcBAGE":3838,"cAGAc":3839,"cFdF":3840,"caec":3841,"fdecdcBA":3842,"bbb":3843,"dcdefefg":3844,"ceAec":3845,"egbgeg":3846,"egdgegdg":3847,"dgfag":3848,"ABAGFDEF":3849,"gdcBdg":3850,"EBGBEB":3851,",-":3852,"Aafd":3853,"BBABc":3854,"BEFGFE":3855,"CDFA":3856,"EGFDE":3857,"FBAF":3858,"FBAFE":3859,"Gee":3860,"dAdef":3861,"fAdf":3862,"BAcBA":3863,"BAce":3864,"BABGE":3865,"efc":3866,"GAAB":3867,"GABGG":3868,"GABAFD":3869,"cAdcA":3870,"cAeAfA":3871,"BdedB":3872,"FAAABc":3873,"cdAd":3874,"GFGG":3875,"GECC":3876,"fdcBA":3877,"fddc":3878,"fdAdf":3879,"DEGG":3880,"AAE":3881,"gageg":3882,"BcdF":3883,"Bcdded":3884,"Bcdedcd":3885,"FDFB":3886,"dBBAF":3887,"afedef":3888,"afbfa":3889,"dddB":3890,"gedBAB":3891,"fedefe":3892,"deede":3893,"AdBd":3894,"AdAFA":3895,"ceBcA":3896,"cecABc":3897,"bac":3898,"BBBG":3899,"EEDB":3900,"FGABcAFA":3901,"fagedB":3902,"faab":3903,"defB":3904,"defded":3905,"gfededcB":3906,"dBABAG":3907,"gfeb":3908,"ABAe":3909,"dggfdc":3910,"dBGcAF":3911,"dBGBcAFA":3912,"eABcd":3913,"FEDCD":3914,"DGBc":3915,"EGBc":3916,"EGGA":3917,"ABdBAG":3918,"ggd":3919,"ffga":3920,"afdecA":3921,"afdgab":3922,"cdeedc":3923,"AFABde":3924,"eAABcd":3925,"edBAFE":3926,"bggf":3927,"ecdBAF":3928,"GABdcB":3929,"edBdeg":3930,"FBDB":3931,"fecBc":3932,"edcdAF":3933,"fgfdf":3934,"EFAA":3935,"EDEB":3936,"EDEFE":3937,"gbgg":3938,"edcBAc":3939,"edcBABcd":3940,"FGEFGE":3941,"dfegf":3942,"DGBGAGEG":3943,"DEGAGE":3944,"Affe":3945,"cdccBA":3946,"ceaef":3947,"AcBAGED":3948,"agfedB":3949,"faaeaa":3950,"cABGAGED":3951,"agfecA":3952,"afageg":3953,"dBcAGE":3954,"BABGEF":3955,"fagefd":3956,"BDDADD":3957,"gfdcAF":3958,"egdge":3959,"gbafgedB":3960,"cAAGEFGE":3961,"ABGB":3962,"AFEDB":3963,"CFF":3964,"DAG":3965,"Dcc":3966,"Fdc":3967,"ecde":3968,"eBgB":3969,"fAdA":3970,"BAdBAF":3971,"edefed":3972,"edefgage":3973,"efecAc":3974,"||=":3975,"GABdB":3976,"cAg":3977,"cdAG":3978,"cdcde":3979,"cdcAB":3980,"BGdBc":3981,"GEAGED":3982,"fdBAFE":3983,"AABcd":3984,"gaecA":3985,"cBAcBA":3986,"FDd":3987,"afbafe":3988,"fedeAA":3989,"fedcdcBA":3990,"fedeag":3991,"AdcBA":3992,"AdcAGE":3993,"ceeA":3994,"GGg":3995,"faed":3996,"faga":3997,"facB":3998,"fadfa":3999,"faabafdf":4000,"defgf":4001,"gfedeg":4002,"dBAGFD":4003,"ABAg":4004,"ABAAB":4005,"ABAGAB":4006,"ABAGFD":4007,"ABAGFDD":4008,"aggf":4009,"agge":4010,"dfBd":4011,"dAeA":4012,"BeBc":4013,"FEDFGA":4014,"EFDEFA":4015,"aae":4016,"DBDA":4017,"cccec":4018,"BGAFGE":4019,"dcBABAGF":4020,"fgaecA":4021,"cAABGG":4022,"BEcEBE":4023,"CEB":4024,"DAFG":4025,"bgaged":4026,"EAAEAA":4027,"BGBBGB":4028,"fafec":4029,"edeB":4030,"bafge":4031,"DEGDEG":4032,"EFGc":4033,"BAAg":4034,"FBBABcde":4035,"fececB":4036,"fecBce":4037,"GBAGFD":4038,"GABcB":4039,"FEFDEF":4040,"DEFABd":4041,"BeeBee":4042,"defgafed":4043,"agag":4044,"dAABAG":4045,"BFBd":4046,"ECEG":4047,"fedBBA":4048,"agfede":4049,"cdedcAA":4050,"BABcdAFD":4051,"fdadbd":4052,"cegceg":4053,"fdddcd":4054,"cdecBcdB":4055,"EFGEFDD":4056,"dfafbfaf":4057,"BGGAGE":4058,"faafgfed":4059,"faafbfaf":4060,"afefdBB":4061,"BdAFG":4062,"egbegb":4063,"DGABAG":4064,"defedBAF":4065,"gabgefge":4066,"GDGBGB":4067,"dBAcBGGA":4068,"aAgAfAeA":4069,"BEAFDF":4070,"Aaf":4071,"Agfed":4072,"ADBDAD":4073,"BDA":4074,"Cc":4075,"EABA":4076,"FDEFA":4077,"Gdc":4078,"Td":4079,"aAAA":4080,"cfef":4081,"dgfd":4082,"eefed":4083,"gcec":4084,"gGGG":4085,"BAf":4086,"BcBd":4087,"GAD":4088,"GAGFD":4089,"cAdc":4090,"BdAGFDD":4091,"FAcd":4092,"cdAF":4093,"fdcAFA":4094,"fdgfdc":4095,"DEEDE":4096,"FECA":4097,"cBABce":4098,"cBAGFGAF":4099,"FDFE":4100,"FDFF":4101,"dBf":4102,"afb":4103,"fedcBAG":4104,"fedcAd":4105,"Adced":4106,"GGBG":4107,"BAGdBG":4108,"DDCD":4109,"efgdBA":4110,"faagf":4111,"defedcBA":4112,"fgdBd":4113,"dBAFGE":4114,"ABcAG":4115,"ABAAce":4116,"dedBGA":4117,"deddAF":4118,"DFAdB":4119,"GBdcAF":4120,"dcdfaf":4121,"dcAcAG":4122,"EFGED":4123,"EGGE":4124,"ggB":4125,"afdefg":4126,"dcBAGFGA":4127,"Addf":4128,"AddAd":4129,"AdddcB":4130,"ABcdc":4131,"eAAcAA":4132,"DFDE":4133,"efdefg":4134,"eaabagef":4135,"efeefe":4136,"efeede":4137,"AGFDE":4138,"efgaba":4139,"EFGAG":4140,"fecea":4141,"AAAcA":4142,"edcAAG":4143,"agedBd":4144,"fBBd":4145,"cdefgedc":4146,"dfeg":4147,"defgabag":4148,"gfgage":4149,"cGce":4150,"dfde":4151,"fdBBAB":4152,"GDGAB":4153,"dAAG":4154,"eBBeBB":4155,"cABGAF":4156,"AdfAdf":4157,"dBAFEFGA":4158,"fdadfdad":4159,"gabaga":4160,"egedBAGA":4161,"BAGFEF":4162,"FGBed":4163,"BdddBG":4164,"Aaaga":4165,"BdAdB":4166,"gecAce":4167,"GBAFGEE":4168,"dGBGAGEG":4169,"AFDFAcBA":4170,"AddcAGFG":4171,"BGAFDGG":4172,"dBAdBEE":4173,"cacBgB":4174,"AeAfA":4175,"Bgfed":4176,"BfB":4177,"DdB":4178,"cBcdB":4179,"dFBF":4180,"dgegde":4181,"egfedc":4182,"ĠAFF":4183,"ededBA":4184,"GAGEDE":4185,"cAABA":4186,"BdcAGE":4187,"FAEF":4188,"cdcc":4189,"cdecB":4190,"fdfag":4191,"BcdcAG":4192,"ecBd":4193,"eccB":4194,"ecBdcAA":4195,"FECB":4196,"cBAGFGAB":4197,"cBAGFGAc":4198,"geBege":4199,"dBfB":4200,"affd":4201,"affe":4202,"ddfd":4203,"dddf":4204,"gedcBG":4205,"ABBBAG":4206,"fedcdB":4207,"deeedB":4208,"bagaf":4209,"AFFEF":4210,"faba":4211,"dccA":4212,"defafd":4213,"gfededBd":4214,"eafd":4215,"egged":4216,"egece":4217,"ABAAFE":4218,"dedfed":4219,"ĠAdd":4220,"ĠADD":4221,"GBdBc":4222,"GBdge":4223,"GBdBGBdB":4224,"dgef":4225,"agd":4226,"dfefge":4227,"eABd":4228,"dcda":4229,"dcAGFGAB":4230,"BeedBd":4231,"BABf":4232,"EAFD":4233,"fffd":4234,"FFB":4235,"fgafgfed":4236,"Addefg":4237,"agfeg":4238,"edBABc":4239,"BEcE":4240,"bgbafa":4241,"BAFABd":4242,"fefde":4243,"fefgaf":4244,"BGBg":4245,"bafede":4246,":|[|":4247,"EFGABd":4248,"fecf":4249,"abgg":4250,"aeef":4251,"aeeae":4252,"fgfdB":4253,"DEFABAFA":4254,"egfded":4255,"fBBABcde":4256,"cdefgfge":4257,"edcBAF":4258,"efgfdec":4259,"dBcABAFA":4260,"dBGABG":4261,"cedcAG":4262,"FDFAFA":4263,"FDFAFD":4264,"bagfgfed":4265,",>_":4266,"AGFEFG":4267,"fdcABGAF":4268,"egecd":4269,"gabagfed":4270,"AFDEFE":4271,"egedBd":4272,"fedfedBd":4273,"fedfedce":4274,"eaagedd":4275,"degabgag":4276,"dAdfed":4277,"gabgagef":4278,"fbbfaa":4279,"ecGcec":4280,"-(":4281,"<=":4282,"BBdB":4283,"EGFDD":4284,"FBAB":4285,"Hd":4286,"cb":4287,"dGFG":4288,"dAAA":4289,"dBcdB":4290,"dAdf":4291,"eedBd":4292,"eafe":4293,"gefed":4294,"gefe":4295,"gBdc":4296,"BAcBAF":4297,"BAGFGABc":4298,"BcE":4299,"GABcdB":4300,"cAa":4301,"cABAG":4302,"gfdef":4303,"gffeed":4304,"FAGB":4305,"FABce":4306,"cddcd":4307,"cdBGB":4308,"cdcBAB":4309,"fdgef":4310,"fddefgaf":4311,"DEFDD":4312,"gaag":4313,"BcddcB":4314,"Bcdced":4315,"eceA":4316,"ecBAB":4317,"cBAdcB":4318,"gecABc":4319,"gebe":4320,"dBBe":4321,"dBfBdB":4322,"affa":4323,"afece":4324,"afecBA":4325,"cBBe":4326,"/|^":4327,"degd":4328,"ceged":4329,"GGc":4330,"GGd":4331,"GGGBd":4332,"ĠGBd":4333,"BAGBdB":4334,"BAGFAF":4335,"BAGBAGFA":4336,"EEDEFGA":4337,"AFGFED":4338,"FGAGFD":4339,"AGd":4340,"defdc":4341,"eab":4342,"dBAFDEFD":4343,"deddBA":4344,"dedcAB":4345,"DFAded":4346,"ecAcBA":4347,"ecAefg":4348,"ecAEAc":4349,"GBdBG":4350,"agbg":4351,"AcG":4352,"dffe":4353,"dcdAGF":4354,"dcdBAFDF":4355,"dcdefgaf":4356,"DGBAG":4357,"BGABGE":4358,"afda":4359,"dcBAGFE":4360,"dcBAGB":4361,"ABcdedcB":4362,"GEDDEG":4363,"eaagegdg":4364,"AGABAG":4365,"fafed":4366,"fafede":4367,"BdBBAG":4368,"BEEG":4369,"ecdBc":4370,"BcBAFE":4371,"AFEDFA":4372,"efgecd":4373,"Bcdegfe":4374,"cBAGFADF":4375,"CDFGA":4376,"DEFABA":4377,"dfagfe":4378,"dfaagf":4379,"AGFGBc":4380,"BcBBAF":4381,"gdBBAB":4382,"ABGEE":4383,"DEFGABc":4384,"cBcdeg":4385,"Bdega":4386,"gfgagfed":4387,"Bdgbag":4388,"edefgedB":4389,"AdfdedBd":4390,"gfdBcd":4391,"gfddB":4392,"dBAFGEE":4393,"fdcABG":4394,"ECEGc":4395,"GABGFGAF":4396,"egee":4397,"AcBAGF":4398,"AcBAGEDE":4399,"fBBfBB":4400,"BABcdcde":4401,"ABdefdde":4402,"dBAFEGFE":4403,"FDDDFA":4404,"dcdefgfe":4405,"BBABg":4406,"AGFGAF":4407,"bBaBgB":4408,"fAdfeAce":4409,"cAeAcAeA":4410,"gGfG":4411,"BAGEGD":4412,"FAdefdAF":4413,"FAABAFED":4414,"eaagegdc":4415,"fBgBfB":4416,"AEAA":4417,"Afef":4418,"ADED":4419,"Ddcd":4420,"DGABc":4421,"Eg":4422,"EGEE":4423,"EBGE":4424,"EDEFA":4425,"EGAG":4426,"Ff":4427,"FFGA":4428,"GeG":4429,"GCEG":4430,"GFAG":4431,"ace":4432,"bgedBG":4433,"cGAG":4434,"dbag":4435,"dad":4436,"dAdfd":4437,"dgfge":4438,"eBBB":4439,"fgedBG":4440,"BAAc":4441,"edefa":4442,"BcG":4443,"BcecBA":4444,"efffed":4445,"GABB":4446,"BddG":4447,"BdgedB":4448,"gfefga":4449,"FAcB":4450,"FAABAA":4451,"cdBAGF":4452,"DEBE":4453,"gafdf":4454,"BcdAFD":4455,"ecf":4456,"gega":4457,"FDCB":4458,"afede":4459,"dddA":4460,"ABee":4461,"degdB":4462,":||:^":4463,"bagab":4464,"fecAB":4465,"feafec":4466,"AFBA":4467,"dcBcdB":4468,"defec":4469,"defefg":4470,"defgab":4471,"gfeddcBA":4472,"GFEDA":4473,"egdcBGG":4474,"GBBG":4475,"dBAFB":4476,"ABcF":4477,"ABAf":4478,"dedcde":4479,"dfbafd":4480,"edBBdB":4481,"dBGBdg":4482,"eAeA":4483,"BcAFD":4484,"aaaf":4485,"ccf":4486,"ggdc":4487,"efedBc":4488,"cdecde":4489,"dcBAc":4490,"Addefdec":4491,"gdga":4492,"efdAF":4493,"cAAfec":4494,"bgbafd":4495,"CEABc":4496,"GEEDEFGA":4497,"EAABA":4498,"BGEC":4499,"faff":4500,"BEEEFA":4501,"dBddBd":4502,"BABdcd":4503,"GABdeg":4504,"DEGD":4505,"gefged":4506,"cAFDEF":4507,"ADc":4508,"fgfge":4509,"cAcef":4510,"ABGD":4511,"dBcBAG":4512,"cAGEED":4513,"AEGE":4514,"cGBG":4515,"gfefded":4516,"fdcAd":4517,"ECDB":4518,"ECEA":4519,"fbbab":4520,"EFEEFA":4521,"cAGAF":4522,"aecefece":4523,"ceeefg":4524,"dcBcAF":4525,"fdedBc":4526,"EGGDGG":4527,"abagef":4528,"BdddBA":4529,"dfecdBAG":4530,"FFFdF":4531,"gfdcAd":4532,"efgedBGB":4533,"BdAFFEE":4534,"ecgceg":4535,"BGAGEGDG":4536,"fefgafdf":4537,"ECEB":4538,"agbgageg":4539,"AdFdAd":4540,"ceAeceAe":4541,"'(":4542,",:||:":4543,"25":4544,"Afd":4545,"Amaj":4546,"Aece":4547,"Acdc":4548,"Bbb":4549,"DFGAB":4550,"EGFED":4551,"EGFD":4552,"EFDB":4553,"Fcc":4554,"GDGG":4555,"HD":4556,"ade":4557,"bgfe":4558,"bbaf":4559,"cefga":4560,"cgc":4561,"dGA":4562,"eedef":4563,"gdeg":4564,"gceg":4565,"ĠBG":4566,"ĠDEF":4567,"edged":4568,"edfe":4569,"edBcA":4570,"edgB":4571,"edBAGB":4572,"edefgfga":4573,"eddgdd":4574,"Bcf":4575,"BcAd":4576,"efdcd":4577,"efdcA":4578,"cAGFE":4579,"cABAGE":4580,"gfagf":4581,"FAGFE":4582,"FABcA":4583,"cddd":4584,"cdfg":4585,"BGdBG":4586,"BGBe":4587,"fddcA":4588,"fddcAA":4589,"AAAG":4590,"gad":4591,"gagec":4592,"BcdAG":4593,"cBABA":4594,"FDDG":4595,"deag":4596,"cecAc":4597,"babag":4598,"BAGc":4599,"BAGBdg":4600,"BBBgB":4601,"DDFD":4602,"efgdc":4603,"FGABAG":4604,"dcBGB":4605,"AGGE":4606,"AGBGAGEG":4607,"gfedefge":4608,"GBDG":4609,"ABcBAB":4610,"dedG":4611,"dgBd":4612,"dgbgageg":4613,"dAfd":4614,"Becd":4615,"DGGE":4616,"aaea":4617,"gfgBcd":4618,"EAFAEA":4619,"BGAGFD":4620,"afdc":4621,"afdcdA":4622,"cdege":4623,"fgafga":4624,"fgafge":4625,"eAAABc":4626,"cAAEAA":4627,"GFGABABd":4628,"BAGAGEG":4629,"GEEDEG":4630,"dcBB":4631,"GEGD":4632,"fAgA":4633,"AFEDEF":4634,"GABdef":4635,"ada":4636,"gefdedBc":4637,"fecc":4638,"GBADFA":4639,"fgfefed":4640,"GABcBcd":4641,"ageged":4642,"eBfB":4643,"Beeefe":4644,"cAcefg":4645,"FAdABAdA":4646,"abafd":4647,"abaagf":4648,"cEGE":4649,"DEDFED":4650,"cBcded":4651,":|||:(":4652,"defgagfe":4653,"defgabaf":4654,"gfgabg":4655,"bagfa":4656,"ceaec":4657,"fbbaf":4658,"fedBBd":4659,"BGFGB":4660,"beef":4661,"dffcee":4662,"Addcdefd":4663,"EDDCD":4664,"cccac":4665,"afgefdef":4666,"fedfedcA":4667,"fedfedcB":4668,"efgedBAG":4669,"dggfgbag":4670,"FAAAFD":4671,"BGAFGEE":4672,"EAABcBcd":4673,"GEcEG":4674,"gecegece":4675,"BBcA":4676,"DBAG":4677,"EDFAd":4678,"aAc":4679,"aafe":4680,"adgd":4681,"ccAF":4682,"cedcd":4683,"cefec":4684,"dGF":4685,"dAc":4686,"dece":4687,"fba":4688,"Ġ^":4689,"ĠABA":4690,"ĠED":4691,"eddcA":4692,"eddgdB":4693,"BccBc":4694,"efeAce":4695,"cAABcA":4696,"Bdfd":4697,"FAAc":4698,"cdF":4699,"cdcAFA":4700,"cdcAGA":4701,"GEFGE":4702,"DEFEFG":4703,"Bcdfed":4704,"Bcdede":4705,"BcdcBG":4706,"BcdgdBG":4707,"ecedBd":4708,"FEFED":4709,"FEDFAd":4710,"cBAFG":4711,"FDDFA":4712,"dBgdBG":4713,"ABf":4714,"fedfd":4715,"ĠDGA":4716,"Aded":4717,"Adefg":4718,"ceeg":4719,"ceBe":4720,"ceggec":4721,"GGD":4722,"BAGdG":4723,"efgece":4724,"efgdBd":4725,"AFGEE":4726,"faae":4727,"gfedg":4728,"eaef":4729,"eggg":4730,"GBeB":4731,"GBGAGE":4732,"fgece":4733,"dBAFEF":4734,"gfecA":4735,"ABccBA":4736,"dedBAF":4737,"dedcBG":4738,"DFAcd":4739,"GABedB":4740,"GBdgab":4741,"dgbag":4742,"AcBG":4743,"dcdedc":4744,"dcdfecA":4745,"ĠEA":4746,"EFGFED":4747,"EGBA":4748,"EGcG":4749,"ABdABAFA":4750,"ccBG":4751,"afddfa":4752,"dcBAGFED":4753,"AFABGB":4754,"fgad":4755,"fgagfdcA":4756,"agfec":4757,"efeaf":4758,"GFGABG":4759,"CEFECE":4760,"GEEFG":4761,"eceece":4762,"EAAc":4763,"EAAcBA":4764,"EAAcAA":4765,"fefaf":4766,"dBdd":4767,"dBdcAc":4768,"cBAGFA":4769,"DEGBAG":4770,"fecBAB":4771,"abged":4772,"DEFAA":4773,"AAAg":4774,"EFABcA":4775,"agee":4776,"edcAAc":4777,"dBBBcd":4778,"DGGB":4779,"abaga":4780,"BcBBcd":4781,"gdBg":4782,"gedBAcBA":4783,"GAGBG":4784,"cAGEEDDE":4785,"BdgBA":4786,"AEAB":4787,"agae":4788,"CDEFE":4789,"fgfede":4790,"dAAfAA":4791,"gagged":4792,"fedcBcdB":4793,"fdcAFGAc":4794,"AcBAF":4795,"fAAfAA":4796,"cEEcE":4797,"eaagageg":4798,"aeca":4799,"BeededBA":4800,"FGFFED":4801,"GAcBdG":4802,"addfdd":4803,"abafe":4804,"BcdcBGG":4805,"âĢľ":4806,"eaagedBd":4807,"BedBAG":4808,"aecAce":4809,"DGGFGBAG":4810,"dBAFABde":4811,"degabgab":4812,"âĢĻ|":4813,"EBBBAG":4814,"gbafg":4815,"BAGFAGFED":4816,"EFABcABc":4817,"gbagfagf":4818,"afecdBAF":4819,"bgabgedB":4820,"CDEFGABc":4821,"BGEAFD":4822,",|||:":4823,"AMaj":4824,"CDCDE":4825,"Df":4826,"DFDF":4827,"EBd":4828,"EFEF":4829,"Eeed":4830,"Fe":4831,"FdF":4832,"FBdc":4833,"GDE":4834,"GdB":4835,"TE":4836,"ar":4837,"aafa":4838,"aeae":4839,"bA":4840,"daf":4841,"eGBd":4842,"eBeB":4843,"eafecA":4844,"ffg":4845,"edGBd":4846,"BccB":4847,"efafd":4848,"||||:":4849,"GABAA":4850,"GAGEEDD":4851,"cAcB":4852,"cAGAB":4853,"FAED":4854,"cdeecA":4855,"GEcEdEcE":4856,"fdedef":4857,"fddAdd":4858,"DEGABc":4859,"AAGEG":4860,"gaA":4861,"gagd":4862,"gafgef":4863,"BcdAGF":4864,"cBAFD":4865,"cBAeAcA":4866,"dBedBA":4867,"dBBcAA":4868,"afefdB":4869,"degf":4870,"ceAB":4871,"ceefee":4872,"febefe":4873,"BAGBABde":4874,"efgg":4875,"gfedcdeg":4876,"GFEFDE":4877,"GBGAFD":4878,"fgefge":4879,"ABcAGEE":4880,"dedAFA":4881,"dedcBAG":4882,"DFAFA":4883,"DFAFG":4884,"dgefdc":4885,"AcBdced":4886,"EDBA":4887,"dBGg":4888,"dBGecA":4889,"dAcA":4890,"dcAAGF":4891,"dcAcAF":4892,"dcAGFD":4893,"aaec":4894,"ABdAF":4895,"ccef":4896,"fgafed":4897,"cAABAG":4898,"eaageaag":4899,"AGAA":4900,"bgba":4901,"BAFAG":4902,"bgafge":4903,"ecdcBA":4904,"ecdBcA":4905,"dBdc":4906,"Bggfg":4907,"AFEEFE":4908,"GABddB":4909,"EFGABEE":4910,"FBBc":4911,"feced":4912,"fecBAF":4913,"AAAfA":4914,"EFAcBA":4915,"BGBdBd":4916,"BGBdgdBG":4917,"dfag":4918,"fBBA":4919,"fdfgfg":4920,"BeeB":4921,"gecc":4922,"cecBA":4923,"efgfagedB":4924,"cBcdedcB":4925,"BABcAF":4926,"AEGED":4927,"agagef":4928,"dAAF":4929,"gagece":4930,"dAFADAFA":4931,"fcaf":4932,"fdcAdBcA":4933,"eccacc":4934,"AcBAFE":4935,"AcBAGB":4936,"EGBefg":4937,"ABdefee":4938,"BGEEFG":4939,"fdcdfg":4940,"cABGAGEF":4941,"eAfAg":4942,"AFDDFD":4943,"GABGABGE":4944,"ABGAGE":4945,"egedcB":4946,"GBdBBAA":4947,"abafg":4948,"BDDBD":4949,"BdAFGEE":4950,"eaafgedg":4951,"cAGFDC":4952,"dDDcDD":4953,"BGAFGFED":4954,"egfedBAF":4955,"gefdecdB":4956,"BEGBA":4957,"AAABe":4958,"ceAceAce":4959,"BddBdBGB":4960,"fdadbdaf":4961,"AcAA":4962,"Aecd":4963,"ADEFGA":4964,"BC":4965,"Bged":4966,"Bedc":4967,"BBAGB":4968,"BDAD":4969,"CEDB":4970,"Dg":4971,"DBc":4972,"DAFD":4973,"DCE":4974,"DFEE":4975,"DFEFD":4976,"DGEGDG":4977,"Em":4978,"EcB":4979,"EABd":4980,"FFAc":4981,"aAce":4982,"bgedBA":4983,"cGB":4984,"cgfe":4985,"cBGBd":4986,"cefa":4987,"cDBD":4988,"gBdB":4989,"th":4990,"ĠAA":4991,"ĠBGG":4992,"BAdB":4993,"eddBd":4994,"edcAF":4995,"BcF":4996,"Bced":4997,"BccBA":4998,"Bcedc":4999,"BcBE":5000,"efdedB":5001,"GADD":5002,"GAGEF":5003,"cAecA":5004,"cAFDFA":5005,"cAABcdeg":5006,"BdedBG":5007,"gfdg":5008,"FAf":5009,"FAGBA":5010,"GFGFE":5011,"GEGAB":5012,"GEFDD":5013,"GEAE":5014,"fdBG":5015,"fdeAA":5016,"fdBcde":5017,"fddfed":5018,"AAD":5019,"BcdBcd":5020,"Bcdge":5021,"BcdedB":5022,"BcdAFA":5023,"BcdAFE":5024,"BcdedBd":5025,"ecBAF":5026,":||||":5027,"FDGGA":5028,"affef":5029,"afgedg":5030,"ddefg":5031,"cBF":5032,"ABGABd":5033,"deBd":5034,"FGc":5035,"AdBAFE":5036,"bae":5037,"feefe":5038,"efggfg":5039,"AFc":5040,"AFBFAFEF":5041,"FGAFE":5042,"fadf":5043,"dccB":5044,"dcBcde":5045,"dcBcdefg":5046,"AGFAd":5047,"eagfedcB":5048,"egB":5049,"eeA":5050,"DFAD":5051,"ecAABA":5052,"GBdBBA":5053,"dgdBG":5054,"AccA":5055,"AcGEEDD":5056,"edBgdB":5057,"dcdd":5058,"dcAGAc":5059,"Beeg":5060,"FEDFED":5061,"GFGD":5062,"EGDEGA":5063,"BcAGED":5064,"gfgB":5065,"ABdefdec":5066,",|=":5067,"ccG":5068,"cccA":5069,"cccd":5070,"gggd":5071,"afdefe":5072,"afdfgfed":5073,"afdbge":5074,"cdeefg":5075,"cdegfe":5076,"dcBAGE":5077,"dcBAGABd":5078,"dcBAGABc":5079,"AFAD":5080,"DEFB":5081,"DEFDEF":5082,"fgafe":5083,"AFDFAd":5084,"DFFD":5085,"GEDFE":5086,"edBAA":5087,"cBcBAG":5088,"BAFADAFA":5089,"AGFGFD":5090,"BGBBcd":5091,"fafece":5092,"ecdef":5093,"GEGce":5094,"fAeAd":5095,"DEGGAB":5096,"EFGABcA":5097,"gefdefge":5098,"GBAcBd":5099,"fgfefe":5100,"GABcAB":5101,"GABcAF":5102,"agedcB":5103,"BGBdcAFA":5104,"FAFGEA":5105,"defgd":5106,"DGGGAGFGA":5107,"cdefgedB":5108,"BAGEA":5109,"ABGFGA":5110,"cBcdec":5111,"GAGBAG":5112,"cAGEEDCE":5113,"BAFDA":5114,"BdgdBGG":5115,"AEGA":5116,"AEABc":5117,"CDEA":5118,"CDEFD":5119,"dfded":5120,"AdfdAF":5121,"cedBcAA":5122,"fdBBdB":5123,"AaecA":5124,"fgfedefg":5125,"ADFAc":5126,"AGFEDEFD":5127,"fedcBd":5128,"fcfaf":5129,"dGGBGG":5130,"BABcdcBA":5131,"EEEc":5132,"gdBdedBd":5133,"FGABcedc":5134,"fdecdcAG":5135,"aecaec":5136,"GABGAGED":5137,"ABAFABde":5138,"FEFABc":5139,"gfgecA":5140,"cBcAFA":5141,"BGGAFF":5142,"fedfedBc":5143,"egbbge":5144,"FAdfec":5145,"bagafd":5146,"BFAFDEFA":5147,"FAdAfAdA":5148,"afdfeBB":5149,"BAGGDG":5150,"EFGFEFGF":5151,"gdegdB":5152,"ceedff":5153,"DEDCED":5154,"cAceaecA":5155,"'/|":5156,">!":5157,"Aefg":5158,"Bm":5159,"CGE":5160,"CCE":5161,"CCA":5162,"DGABd":5163,"EAd":5164,"FCA":5165,"FdAF":5166,"GDBD":5167,"Tg":5168,"adg":5169,"bdd":5170,"dgeg":5171,"egaged":5172,"fBg":5173,"ffede":5174,"Ġaf":5175,"BAEE":5176,"BABAGA":5177,"edBcde":5178,"BcABGA":5179,"effed":5180,"efdcAG":5181,"efffec":5182,"BdGG":5183,"Bdfa":5184,"Bdgfe":5185,"BdcAFA":5186,"gfdcB":5187,"FAe":5188,"BGGGG":5189,"fdgd":5190,"fdedd":5191,"DEFDB":5192,"gaed":5193,"gabgag":5194,"gagede":5195,"gabgaf":5196,"BcdeAA":5197,"BcdgdBd":5198,"cBAAGE":5199,"cBAGFED":5200,"gege":5201,"geedB":5202,":||(":5203,"FDAFE":5204,"dBgd":5205,"dBgdB":5206,"dBFBdB":5207,"cBg":5208,"ABGAB":5209,"fedBe":5210,"fedcAc":5211,"decAF":5212,"FGD":5213,"AdAd":5214,"AdcABc":5215,"AdBcAF":5216,"AdcBAGFE":5217,"ceafec":5218,"ceefecBA":5219,"bad":5220,"fecABc":5221,"BBBdB":5222,"DDc":5223,"FGAcBA":5224,"defgfed":5225,"defaa":5226,"defede":5227,"defdedBA":5228,"gfedfe":5229,"gfedBee":5230,"gfedcdec":5231,"GFEe":5232,"egbg":5233,"dBABAF":5234,"dBAFF":5235,"dBAFEDB":5236,"dBAGEGG":5237,"dBABGEDE":5238,"|||:^":5239,"dedded":5240,"DFAFE":5241,"ecAGED":5242,"dgge":5243,"AcGE":5244,"AcGED":5245,"dAFEFA":5246,"eAg":5247,"ĠEG":5248,"BeedcABc":5249,"BABEE":5250,"ABdc":5251,"ABdBA":5252,"gggf":5253,"EAcd":5254,"FFFd":5255,"afdcdf":5256,"afdfefgf":5257,"cdega":5258,"dcBAd":5259,"AFAf":5260,"AFABcd":5261,"AFAfed":5262,"AFADFA":5263,"fgac":5264,"AddcAGEF":5265,"BGGf":5266,"gdBcAF":5267,"AFDB":5268,"eaac":5269,"eaaeaa":5270,"edBAGF":5271,"edBAGEE":5272,"BEDE":5273,"BEGEBE":5274,"gedBg":5275,"EAABcd":5276,"BGEGAB":5277,"DCED":5278,"BEEGFE":5279,"dBdG":5280,"BgdBA":5281,"Acegfdde":5282,"efgecA":5283,"BABdA":5284,"EFGGFE":5285,"EFGABcdB":5286,"EFGABAGB":5287,"ADFDFA":5288,"dfedcABc":5289,"DEFAdBAF":5290,"egfef":5291,"gBaB":5292,"fdffdf":5293,"DGGGAG":5294,"cAcGc":5295,"AGFGDB":5296,"DEDDEF":5297,"dBcAA":5298,"gedBAc":5299,"gedBABGE":5300,"dFFEF":5301,"AECA":5302,"Adfded":5303,"DEGABABd":5304,"gfdfg":5305,"Aaafec":5306,"Bcege":5307,"eBBe":5308,"AGFEF":5309,"fdcABGBd":5310,"ECF":5311,"BABcdf":5312,"gdBdgdBd":5313,"AgA":5314,"cEEGEE":5315,"BdefgedB":5316,"GABGAGEF":5317,"bggg":5318,"cBAFFA":5319,"aAfA":5320,"DADFD":5321,"cABGGB":5322,"dBBABcde":5323,"AGFGABc":5324,"DEFDG":5325,"DDEFE":5326,"fefgec":5327,"defdecdB":5328,"CDEFGE":5329,"BDGBADFA":5330,"ABAFDFAF":5331,"FAAFAdAFD":5332,"fdecAdde":5333,"agabge":5334,"AFEFABce":5335,"BGcAdefg":5336,"BdGdBdGd":5337,"eBgBeB":5338,"gdggdg":5339,",_":5340,"AED":5341,"AeAcA":5342,"Affef":5343,"Baa":5344,"BDED":5345,"Bgfedc":5346,"DGFE":5347,"DFEF":5348,"EGFEF":5349,"Ged":5350,"GGE":5351,"Gceg":5352,"acB":5353,"aefg":5354,"accBc":5355,"dFG":5356,"dBcBA":5357,"dGAG":5358,"egeg":5359,"eBde":5360,"fcd":5361,"gefge":5362,"Ġb":5363,"ĠDEFGA":5364,"BABGB":5365,"BABAGE":5366,"effg":5367,"||[":5368,"GAcBA":5369,"GAdc":5370,"cAdd":5371,"cAecd":5372,"Bdgfed":5373,"Bdefe":5374,"BdAcB":5375,"Bddedd":5376,"gfded":5377,"gfdA":5378,"gfdBc":5379,"gfdfe":5380,"gfddf":5381,":|^":5382,"cdAFD":5383,"cdeage":5384,"BGDE":5385,"BGEDB":5386,"GEGE":5387,"GEAFD":5388,"GEAGFDD":5389,"fdBAFD":5390,"fdAFDF":5391,"DEDA":5392,"gafe":5393,"Bcdefed":5394,"BcdgdB":5395,"eccA":5396,"FEFE":5397,"cBABcde":5398,"geea":5399,"geagf":5400,"FDDB":5401,"dBedBG":5402,"dBBAFB":5403,"cBEGB":5404,"gedegd":5405,"ABed":5406,"fedgfe":5407,"deee":5408,"degedc":5409,"ĠDB":5410,"AdefdB":5411,"cegdBG":5412,"feaf":5413,"BAGg":5414,"DDC":5415,"efgdcB":5416,"AFGFE":5417,"AFcF":5418,"AFdAFd":5419,"defgeg":5420,"eaefed":5421,"GFEGF":5422,"eege":5423,"gfegfdd":5424,"ABcABc":5425,"ABAGAG":5426,"dedcBc":5427,"dedBGABd":5428,"AcF":5429,"dffd":5430,"dfefd":5431,"eAcea":5432,"Beedef":5433,"FEDADD":5434,"edcBd":5435,"edcaecB":5436,"EGFAG":5437,"BcABcd":5438,"BAFdAF":5439,"ABdg":5440,"ABdfed":5441,"gggfg":5442,"dcBAGABG":5443,"DEFGFE":5444,"fgabag":5445,"fgabc":5446,"AddfdB":5447,"agfged":5448,"agfece":5449,"agfefedc":5450,"ABcdf":5451,"eAAg":5452,"eAAfed":5453,"eAAgfe":5454,"cAAcde":5455,"cAGBA":5456,"AGABcA":5457,"AGABAB":5458,"AGABcdef":5459,"GFGABA":5460,"bagbag":5461,"BAGABAA":5462,"EAAcB":5463,"EAABcA":5464,"fefdf":5465,"dcBg":5466,"dBdefg":5467,"efgeB":5468,"EFGABe":5469,"BAAe":5470,"FEFDED":5471,"eBBdBB":5472,"BGBdc":5473,"EDED":5474,"gbgd":5475,"abae":5476,"BAGEEDDE":5477,"DEDc":5478,"cBcdBG":5479,"AeAc":5480,"defgaged":5481,"gfgabagf":5482,"gfgabgaf":5483,"cGdGcG":5484,"ADDBDD":5485,"GABcdedB":5486,"FEEFE":5487,"GDBAG":5488,"cdcBd":5489,"eccef":5490,"eGced":5491,"gagfa":5492,"EFEDE":5493,"FEDEDB":5494,"fAAAFA":5495,"degba":5496,"gabafd":5497,"fecAce":5498,"ceggfe":5499,"BAAABc":5500,"GBBBAG":5501,"GBGD":5502,"GABGAGAB":5503,"BdfBdf":5504,"AFDEFEED":5505,"AGEDBA":5506,"FEFAFD":5507,"dcBcAG":5508,"fagece":5509,"affece":5510,"dedBAGAB":5511,"BcdcBd":5512,"FBBBcd":5513,"eaaaba":5514,"BdcABGG":5515,"egbeg":5516,"BDDBDDBD":5517,"eaagedde":5518,"BdAdG":5519,"EAAGABcA":5520,"ecgcea":5521,"cgBg":5522,"AFdFA":5523,"AFdFAF":5524,"AffAgg":5525,"dcBdcBAc":5526,"cAAcBGGB":5527,"afecABce":5528,"faaagf":5529,"gfefgbag":5530,"FAAFAA":5531,"FAAFABde":5532,"AFdFFEE":5533,"DGGAGA":5534,"agfefdcBA":5535,"dggabgag":5536,"afcfaf":5537,"afbfafeg":5538,"cAFGAGG":5539,"gbgafd":5540,">:|":5541,"Aag":5542,"ABGBd":5543,"ADEFG":5544,"Bba":5545,"Bfe":5546,"Bagf":5547,"BBGE":5548,"BFB":5549,"CCD":5550,"DGAG":5551,"EBAF":5552,"EBAGA":5553,"EedcBA":5554,"FBcd":5555,"FdA":5556,"GBAGA":5557,"HB":5558,"Pf":5559,"TF":5560,"aedc":5561,"aBg":5562,"ccBAc":5563,"dagf":5564,"dgfdcA":5565,"eBcd":5566,"egag":5567,"ebge":5568,"egedc":5569,"fBcd":5570,"fABA":5571,"fBde":5572,"fgedg":5573,"ggfed":5574,"ggfga":5575,"gefdec":5576,"ĠfBB":5577,"Ġ[|":5578,"edAd":5579,"edfedB":5580,"GAded":5581,"cAdBG":5582,"cAABcd":5583,"cAeAce":5584,"cAFGAG":5585,"BdAG":5586,"gfc":5587,"gfAdf":5588,"FAdd":5589,"FAAFE":5590,"FAABAG":5591,"FAFDFA":5592,"FAdfaf":5593,"FABAFB":5594,"cdedcBA":5595,"BGFD":5596,"BGFDC":5597,"GEFGA":5598,"fddefdcA":5599,"DEFDFA":5600,"AAGFG":5601,"gaefd":5602,"BcdBAF":5603,"BcdABG":5604,"BcdBGABG":5605,"ecefa":5606,"ecefec":5607,"ecegec":5608,"FEDEFGAB":5609,"cBAFGA":5610,"cBAgfe":5611,"FDDED":5612,"dBeB":5613,"dBBdBB":5614,"dBBGBB":5615,"afgec":5616,"afbf":5617,"fedBcd":5618,"fedcdefg":5619,"degede":5620,"Ada":5621,"AdBG":5622,"AdAcA":5623,"ceea":5624,"ceAcd":5625,"babg":5626,"bagfd":5627,"bagfedcB":5628,"feeg":5629,"BBa":5630,"BBBeB":5631,"DDd":5632,"AFcA":5633,"AFBF":5634,"AFdAFD":5635,"AFBFA":5636,"FGAdef":5637,"faaba":5638,"dcG":5639,"dcedcB":5640,"defdedBd":5641,"GFEDF":5642,"egdBG":5643,"dBABdf":5644,"gfebe":5645,"ABcBc":5646,"ABAABA":5647,"ABAFDE":5648,"|||:=":5649,"dgged":5650,"agb":5651,"AcedcA":5652,"edBBd":5653,"dAfed":5654,"eAcB":5655,"eAde":5656,"dcdcA":5657,"ĠEFGA":5658,"BeefedBA":5659,"edcc":5660,"edcBG":5661,"DBDD":5662,"BGABcd":5663,"efedcAA":5664,"afdfedBA":5665,"cdeAA":5666,"dcBABd":5667,"AFAGEG":5668,"fgaa":5669,"fgagec":5670,"fgagfd":5671,"BGGBcd":5672,"gdBdg":5673,"ABcdeAA":5674,"eAAcBA":5675,"eAAABd":5676,"DFd":5677,"cAAa":5678,"cAAfed":5679,"cAAFG":5680,"cAAcAA":5681,"GEDGBd":5682,"edBABG":5683,"BEGAB":5684,"CECA":5685,"BAFAc":5686,"bgabge":5687,"feffef":5688,"AGFGB":5689,"AGFDDE":5690,"ecdBcBAG":5691,"fAe":5692,"Aceagf":5693,"Aceece":5694,"Aceaga":5695,"AFEFED":5696,"cBAGGFED":5697,"BABdeg":5698,"EFGABAGF":5699,"ADFG":5700,"edcdAG":5701,"abgfed":5702,"aega":5703,"aege":5704,"aeged":5705,"EFABce":5706,"BGBdgfed":5707,"BGBdcAce":5708,"defgba":5709,"gBaBgB":5710,"gbd":5711,"gbfa":5712,"gbefgb":5713,"dfad":5714,"fBaB":5715,"DEFGAd":5716,"cBcdcA":5717,"GGGD":5718,"dFBd":5719,"GAGFAG":5720,"ĠdAA":5721,"defgagfd":5722,"AEC":5723,"agac":5724,"cAFAcA":5725,"DGBe":5726,"DEGABAA":5727,"fdBFBd":5728,"FDFAdAFA":5729,"fgfedf":5730,"bagfge":5731,"DGBdcB":5732,"cBABed":5733,"eAcABAFA":5734,"EFEFG":5735,"EFEEDB":5736,"cAGAGF":5737,"ABdefdef":5738,"fafdegec":5739,"fdcdcB":5740,"fdecdefg":5741,"cEEcEEcE":5742,"eAfAgAfA":5743,"dBAFEFDB":5744,"EFGEFGAF":5745,"gafece":5746,"cBcABG":5747,"FDAFG":5748,"gddedd":5749,"gddBdd":5750,"faafaa":5751,"AGFGAc":5752,"Bdddef":5753,"dBGBAGED":5754,"cedcBGG":5755,"BGDBGD":5756,"dBGBdBGB":5757,"GBeBGB":5758,"gfaaf":5759,"BGAGEGDE":5760,"BggB":5761,"fgafgbag":5762,"eABAeA":5763,"dgBgdgBg":5764,"AFFEFEDE":5765,"ADEDA":5766,"gfgabgeg":5767,"dBAcBEED":5768,"gebegebe":5769,"GBFBE":5770,"GBFBEB":5771,"aeaaef":5772,"EGFAGBAc":5773,"gbegbe":5774,"DFAFDGBG":5775,"ECGCEC":5776,"ADG":5777,"AEFA":5778,"AEEE":5779,"BBAGABc":5780,"CDCB":5781,"DBd":5782,"Ddc":5783,"EedB":5784,"FDEFGA":5785,"GcBc":5786,"GgdBG":5787,"br":5788,"bec":5789,"bfg":5790,"cGEC":5791,"dAdfa":5792,"eedBA":5793,"fbafed":5794,"gefga":5795,"ggab":5796,"gBgB":5797,"BAdF":5798,"edAA":5799,"Bcee":5800,"BcABA":5801,"Bccc":5802,"efdBB":5803,"||.":5804,"GAe":5805,"GABABd":5806,"cAdcB":5807,"cAGFEF":5808,"cAdcBGG":5809,"cAABcdec":5810,"BdBGBd":5811,"BdgfedcB":5812,"Bdegfdec":5813,"gfB":5814,"gffe":5815,"gfgfe":5816,":|=":5817,"cddc":5818,"cdBAFA":5819,"cdedd":5820,"BGe":5821,"BGFGAF":5822,"GEe":5823,"fdcdB":5824,"fddedc":5825,"AAAFA":5826,"AAAce":5827,"gaece":5828,"cBAedc":5829,"cBAGFGA":5830,"cBAcBG":5831,"cBAeAfA":5832,"geBc":5833,"dBBABd":5834,"dddcd":5835,"gedcA":5836,"ABBc":5837,"ABFF":5838,"deBA":5839,"decdef":5840,"degabage":5841,"ceefe":5842,"BAGGFG":5843,"DDDEDB":5844,"AFBAFG":5845,"FGAGAB":5846,"fade":5847,"gfedBcde":5848,"eath":5849,"GFEFGE":5850,"fgdB":5851,"fgefde":5852,"dBABc":5853,"dBABGABd":5854,"gfeefg":5855,"gfecdcBA":5856,"ABcedc":5857,"ABAFAd":5858,"dedf":5859,"ĠAD":5860,"DFAAFD":5861,"DFAdfd":5862,"ecABcA":5863,"dgec":5864,"agB":5865,"agbage":5866,"AcE":5867,"Aca":5868,"AcBd":5869,"AcGc":5870,"dfba":5871,"dfecB":5872,"dfefde":5873,"dAGE":5874,"eABcde":5875,"dcdefe":5876,"ĠEB":5877,"ĠEAAGA":5878,"dcAGFGE":5879,"edcBcdef":5880,"GFGBcd":5881,"EGcd":5882,"cccB":5883,"EAD":5884,"fffed":5885,"afdcAF":5886,"DEFDEDB":5887,"fgaefa":5888,"agfecB":5889,"gdec":5890,"ABcdA":5891,"ABcdefg":5892,"ABcdAF":5893,"efdfecA":5894,"ĠBmixolydian":5895,"AGABde":5896,"AGABGD":5897,"dGBc":5898,"BEe":5899,"bgefg":5900,"BAGABcdg":5901,"BdBGAB":5902,"bafec":5903,"Bggf":5904,"cBAGFAD":5905,"BABdBd":5906,"GABdc":5907,"efgagedB":5908,"EFGABABc":5909,"cAFFGA":5910,"cAFFAc":5911,"dfedce":5912,"edcdfg":5913,"GBAd":5914,"AAAeAfA":5915,"ageage":5916,"edcAdcAG":5917,"eBBd":5918,"agedcd":5919,"BGBdgdBd":5920,"egfdedBd":5921,"egfddf":5922,"defgdc":5923,"acec":5924,"gabgd":5925,"ĠFBB":5926,"FAdFAd":5927,"abaafd":5928,"BAGEFG":5929,"geceA":5930,"gecgec":5931,"gdBecA":5932,"GAGFA":5933,"FGEA":5934,"FGEFGA":5935,"dfecdcBA":5936,"gfgabgdB":5937,"Bdgba":5938,"Bdgdedgd":5939,"dgggfg":5940,"dfdA":5941,"DGBD":5942,"DGBDGB":5943,"FDFAdcBA":5944,"Bcdefefg":5945,"bgeefg":5946,"BGdGeG":5947,"dAFAFD":5948,"eccefg":5949,"dGGBAG":5950,"cdedcBAG":5951,"fgfecA":5952,"fafdfd":5953,"FGABcABc":5954,"aecef":5955,"GBdgdc":5956,"ecBAce":5957,"FABFA":5958,"AFDEDB":5959,"dfffed":5960,"BABGGB":5961,"AAAABd":5962,"egedeg":5963,"dAFDGBAG":5964,"AGEGDG":5965,"eaagefed":5966,"dDd":5967,"bfafgfef":5968,"dcdefdef":5969,"gddfdd":5970,"afecf":5971,"BAGBADFA":5972,"abafgfed":5973,"BdddBd":5974,"cGEcGE":5975,"BdAdBdAd":5976,"DEGABGAB":5977,"BcdAFG":5978,"cdecABcA":5979,"gbafgfed":5980,"DAFADAFA":5981,"aAgA":5982,"abagfgfe":5983,"BdgdBdgd":5984,"GcEc":5985,"dBAcBGGE":5986,"dBAFBEED":5987,"fgagfdef":5988,"EDADED":5989,"afdfgece":5990,"ABdefddB":5991,"DGEGDE":5992,"cAGFEDCE":5993,"cfAfcf":5994,"FAAGBB":5995,"ecBdcAAB":5996,"dBeBdBAB":5997,"gGfGeG":5998,"breath":5999,",:|[":6000,">||":6001,"Ab":6002,"BFG":6003,"Bgd":6004,"Bggg":6005,"BedcBc":6006,"CEEE":6007,"De":6008,"FdAFD":6009,"GcBAG":6010,"GDEGA":6011,"HG":6012,"LH":6013,"RH":6014,"TG":6015,"cGECEG":6016,"dBcdef":6017,"dgfedc":6018,"eBA":6019,"eABcBA":6020,"ffedc":6021,"gcd":6022,"|/":6023,"ĠĔ":6024,"BAAGE":6025,"efab":6026,"GAFA":6027,"GAFAEA":6028,"cAdBcAGE":6029,"BdGA":6030,"BddBG":6031,"BdcBAF":6032,"FAdefd":6033,"FAdcdf":6034,"FAdcBGG":6035,"cdedef":6036,"cdcdB":6037,"GFFE":6038,"GEFE":6039,"|:||:":6040,"fdeg":6041,"fdafd":6042,"gaec":6043,"gagfef":6044,"Bcddef":6045,"BcdGB":6046,"Bcdefgaf":6047,"cBAf":6048,"cBAGEG":6049,"cBABGED":6050,"geedBA":6051,"afaa":6052,"gedf":6053,"gedBGG":6054,"ABFE":6055,"fedce":6056,"degag":6057,"deBdBA":6058,":||:=":6059,"ĠDC":6060,"ĠDGGFG":6061,"AdfA":6062,"ceagf":6063,"ceefa":6064,"ceAe":6065,"bagede":6066,"fegfe":6067,"BAGBAGFD":6068,"DDg":6069,"DDDE":6070,"DDCDEFE":6071,"FGAf":6072,"FGAcd":6073,"FGAFGA":6074,"FGADFA":6075,"FGAAFD":6076,"fabaf":6077,"AGGAG":6078,"defedBA":6079,"defdBAFA":6080,"gfeded":6081,"gfedBdef":6082,"eagedc":6083,"egBA":6084,"egced":6085,"GBBd":6086,"GBEB":6087,"eeec":6088,"gfegfedB":6089,"ABcf":6090,"dedBAGFA":6091,"DFAf":6092,"DFABA":6093,"DFAfed":6094,"GABg":6095,"GABBAG":6096,"ecAcd":6097,"ecAgfe":6098,"ecAABcd":6099,"GBdgegdB":6100,"dgdc":6101,"dgbgag":6102,"dggfgagf":6103,"agbag":6104,"dfBf":6105,"dBGcGE":6106,"eAa":6107,"dcdABAFA":6108,"Beefgfed":6109,"DGBA":6110,"DGcB":6111,"BcAGEG":6112,"aad":6113,"aaab":6114,"gfgBBA":6115,"gfgdedBG":6116,"AGEDG":6117,"AGEcGE":6118,"EAcAB":6119,"FFFG":6120,"efeded":6121,"efedBG":6122,"efedcdef":6123,"efedcABc":6124,"afdgfd":6125,"AFAdfa":6126,"BGGGAB":6127,"ABcdg":6128,"ABcdBG":6129,"eAAa":6130,"eAAd":6131,"DFBFA":6132,"cAAE":6133,"eaagegdB":6134,"AGAGE":6135,"BAGAce":6136,"CECC":6137,"cBcAG":6138,"cBcedB":6139,"EAAGE":6140,"fefcAc":6141,"dcBBAG":6142,"dcBedc":6143,"DCDEG":6144,"AGFDA":6145,"BdBBAB":6146,"bafafd":6147,"ecdc":6148,"AcecA":6149,"GABded":6150,"GABdedBd":6151,"edBdA":6152,"edBdedBA":6153,"gegbge":6154,"dfedAF":6155,"aeea":6156,"ageagedB":6157,"gbega":6158,"BeeBdB":6159,"BcdBBA":6160,"BAGEFD":6161,"BAGEED":6162,"gecB":6163,"edcBABcA":6164,"DEDAFA":6165,"FDDDEF":6166,"gedBAGED":6167,"dFFAFF":6168,"Aeede":6169,"cAGECE":6170,"gfgagdBd":6171,"agabag":6172,"ABAGBA":6173,"ABAGBd":6174,"DEGABA":6175,"AfAA":6176,"eddfdd":6177,"dAAB":6178,"dAAeAA":6179,"ceagfedc":6180,"gagfgf":6181,"gagfdc":6182,"ABcAGFED":6183,"ABdefgfe":6184,"AGFAGABd":6185,"degGBA":6186,"BeedBcdB":6187,"GBBBAB":6188,"GBGFGA":6189,"GABGAGEG":6190,"dfafgfec":6191,"dfafgfeg":6192,"AAAABc":6193,"BGGAGF":6194,"bfafgfed":6195,"efgfedBd":6196,"BAGBAGED":6197,"cefgfe":6198,"Gggf":6199,"eaagedcd":6200,"dggfgdBd":6201,"defdcAGF":6202,"fefgafge":6203,"fedBADFA":6204,"edgded":6205,"FAAAFA":6206,"cBAGFDEF":6207,"dBABdefe":6208,"eABAeABA":6209,"GEFDEDB":6210,"edBABEE":6211,"FDCDF":6212,"ADFDE":6213,"EAABcBcA":6214,"cBABcdec":6215,"gbagfdd":6216,"dBgBaBgB":6217,"abagfdde":6218,"FAEGFDD":6219,"fdAFGEE":6220,"ceAceA":6221,"agbgaged":6222,"GFDCDF":6223,"cGEGc":6224,"egdBcAA":6225,"GEEAEE":6226,"BdBGAcAF":6227,"faafegfe":6228,"dBAGFEDF":6229,"egdBBAAG":6230,"defagfdc":6231,"afbfafdf":6232,"FBDBFB":6233,"'^":6234,"/||:":6235,"Am":6236,"Afg":6237,"AEF":6238,"ADEF":6239,"BBcBA":6240,"Bac":6241,"CMaj":6242,"DBG":6243,"DABc":6244,"DFEDF":6245,"EAF":6246,"Emin":6247,"EGFG":6248,"FFEDE":6249,"GDEFGA":6250,"GGFD":6251,"GDDD":6252,"JG":6253,"aAa":6254,"aeac":6255,"cC":6256,"cfd":6257,"cge":6258,"ccAG":6259,"cede":6260,"caga":6261,"cfff":6262,"dFE":6263,"dba":6264,"dFB":6265,"dBcB":6266,"dABAFD":6267,"eedd":6268,"eedeg":6269,"ffa":6270,"gdef":6271,"gdedBd":6272,"on":6273,"ti":6274,"ĠBB":6275,"BABB":6276,"BAFGA":6277,"edAF":6278,"edee":6279,"efdBAF":6280,"efgfedcB":6281,"GAdd":6282,"GAGFEF":6283,"cAfA":6284,"cAGABc":6285,"cAGFD":6286,"BdAFD":6287,"BdcABG":6288,"gfage":6289,"cdcABc":6290,"BGFDE":6291,"BGGABcd":6292,"BGDCB":6293,"GFDCD":6294,"fdefa":6295,"fdADFA":6296,"fdAGFDD":6297,"DECEG":6298,"AAcd":6299,"AABGA":6300,"gafec":6301,"Bcdged":6302,"BcdcAF":6303,"BcdedcA":6304,"BcdBADFA":6305,"ecBcdB":6306,"cBAecA":6307,"cBAFF":6308,"FDGFE":6309,"dBFB":6310,"dBbB":6311,"afee":6312,"afedBd":6313,"afab":6314,"afedcA":6315,"afeAce":6316,"afgfec":6317,"ddec":6318,"ddAF":6319,"cBBcB":6320,"/|.":6321,"ABBAG":6322,"ABGABc":6323,"fedBABde":6324,"fedefgaf":6325,"degb":6326,"decAB":6327,"deedBG":6328,"AdcBAG":6329,"cega":6330,"cegc":6331,"ceefec":6332,"baba":6333,"fegec":6334,"BAGGED":6335,"efgbag":6336,"EEED":6337,"FGABGE":6338,"faefde":6339,"fabff":6340,"dcBGBd":6341,"dcBdc":6342,"gfedefga":6343,"eaeged":6344,"GBBc":6345,"GBFB":6346,"fgb":6347,"fgdBG":6348,"eeeg":6349,"eeeB":6350,"dBAdBG":6351,"dBABdB":6352,"dBABGEE":6353,"gfebege":6354,"ABcAA":6355,"dedcAA":6356,"dedcdc":6357,"GBddef":6358,"GBdBGB":6359,"GBdBcAA":6360,"dggd":6361,"aggfg":6362,"agece":6363,"Acfe":6364,"EDFED":6365,"dcdc":6366,"ĠEAABc":6367,"dcAcde":6368,"dcAGEG":6369,"dcAAGEG":6370,"BeBdBA":6371,"edcedB":6372,"GFGBAB":6373,"GFGBAGED":6374,"EGcB":6375,"aabag":6376,"BAFBABde":6377,"BGAFDF":6378,"ffc":6379,"ffefg":6380,"dcBAFBB":6381,"DEFGF":6382,"fgagfg":6383,"agfdc":6384,"ABcdedBd":6385,"eAAG":6386,"GEDGE":6387,"GEDCB":6388,"AGAD":6389,"GFGAGF":6390,"BEFA":6391,"BAGAdc":6392,"cBca":6393,"GEEc":6394,"BAFABc":6395,"bgagfdde":6396,"EAAAGE":6397,"dcBf":6398,"faffec":6399,"edeged":6400,"BEEdEE":6401,"ecdBB":6402,"dBdf":6403,"AFEAFDD":6404,"AFEFDB":6405,"BABdg":6406,"EFGG":6407,"edBdBAG":6408,"EFGAF":6409,"cAFcAF":6410,"ADDEF":6411,"feca":6412,"dfedcAGE":6413,"FEFGFE":6414,"AAAcdec":6415,"EFAd":6416,"EFABcB":6417,"agecA":6418,"eBgfe":6419,"BGBdeg":6420,"BGBdcBAG":6421,"FAFGED":6422,"EDEGFE":6423,"egfge":6424,"dBBBAF":6425,"Beeedc":6426,"cAccAc":6427,"fddecc":6428,"abac":6429,"BAGFGEE":6430,"BAGEDEGA":6431,"gecedefg":6432,"gdBedc":6433,"DEDDED":6434,"efgfa":6435,"cBcdegge":6436,"efaefa":6437,"GGGdG":6438,"FGECE":6439,"AEc":6440,"agaged":6441,"dBGABAAG":6442,"cedBAG":6443,"FDFAdfed":6444,"BcdefBB":6445,"bgegfe":6446,"dAFAFE":6447,"fcac":6448,"fdcAGF":6449,"fbbafe":6450,"AcBAGEED":6451,"eGd":6452,"gdBGG":6453,"agfedf":6454,"BABcdefg":6455,"BABcdedB":6456,"eggdgg":6457,"ABdefddc":6458,"FEDEFD":6459,"FEDEDC":6460,"CCEG":6461,"geeefg":6462,"cEEdFFEF":6463,"AGFAD":6464,"AGFADA":6465,"GBdgba":6466,"GBBFAA":6467,"FGFEDE":6468,"dEBE":6469,"dEcE":6470,"Adfag":6471,"decBcA":6472,"fdedcAA":6473,"adda":6474,"BGdGBGGB":6475,"dDcD":6476,"bfafeg":6477,"ddcdfed":6478,"BFAFD":6479,"gecdedd":6480,"cAGEEDDA":6481,"gBBgBB":6482,"gagecA":6483,"afgedBGB":6484,"BedBAB":6485,"cecABdBG":6486,"dBgBd":6487,"GFAdB":6488,"ddddBA":6489,"GEBEGEE":6490,"Begbe":6491,"cdedcAAG":6492,"GBEBG":6493,"Acecfcec":6494,"cAdAcA":6495,"EDCEAc":6496,"BGDGBdcB":6497,"GFEFGBdB":6498,"cdcBcB":6499,"dcAGEAGE":6500,"FAFGBG":6501,"gfagb":6502,"DEGEed":6503,"aAAgAAfA":6504,"GBDGBDGB":6505,"gBfBe":6506,"fcafcA":6507,"'||":6508,"Amin":6509,"Afec":6510,"AcAGE":6511,"BDB":6512,"Befe":6513,"BBAA":6514,"BfdB":6515,"BFDF":6516,"Bgecd":6517,"Cmaj":6518,"CEDC":6519,"DFEDB":6520,"Edd":6521,"EBGB":6522,"EGAc":6523,"Eeede":6524,"Fed":6525,"FcB":6526,"Fdcd":6527,"FdcB":6528,"FBde":6529,"FBcdcB":6530,"GcBA":6531,"Gge":6532,"Ggfe":6533,"GDF":6534,"GDED":6535,"GgedBG":6536,"aAf":6537,"bgegdg":6538,"cfa":6539,"cgg":6540,"cae":6541,"dag":6542,"dBcde":6543,"dgag":6544,"dDDD":6545,"dGBdg":6546,"eAdef":6547,"fGG":6548,"fgeg":6549,"fBcdB":6550,"ĠP":6551,"Ġ|(":6552,"BAeABA":6553,"edfaaf":6554,"BcBce":6555,"BcABcA":6556,"efaa":6557,"efae":6558,"efdecA":6559,"GAcA":6560,"cABcBA":6561,"cAABcdef":6562,"BdBAF":6563,"BdBAGE":6564,"BddedB":6565,"gfgedc":6566,"FAGA":6567,"FAdcBA":6568,"FABEE":6569,"FAAD":6570,"FAdefg":6571,"FAFDF":6572,"FAGEF":6573,"FABdef":6574,"FAABAF":6575,"cdBcd":6576,"cdfa":6577,"BGGFGABc":6578,"GFB":6579,"GEFA":6580,"fddB":6581,"fddef":6582,"fdBAB":6583,"fdefed":6584,"fdefe":6585,"fdedcd":6586,"fdcBcd":6587,"DEc":6588,"DEDCB":6589,"AABcA":6590,"AAABAFA":6591,"Bcdea":6592,"ecBAA":6593,"ecfc":6594,"ecGc":6595,"cBAABA":6596,"cBABcB":6597,"cBAcec":6598,"cBAGEC":6599,"cBABcded":6600,"cBAeBd":6601,"geBe":6602,"geedBd":6603,"geafgfed":6604,"FDFD":6605,"dBBG":6606,"dBfd":6607,"dBDFBd":6608,"cBGAF":6609,"gedcAA":6610,"ABBd":6611,"fededBd":6612,"fedefa":6613,"fedBAFF":6614,"decdB":6615,"degaba":6616,"FGBc":6617,"Adfg":6618,"Adefa":6619,"ceAA":6620,"ceeaa":6621,"GGBc":6622,"GGGFG":6623,"bagfga":6624,"bagfedc":6625,"fecdB":6626,"BAGe":6627,"BAGdB":6628,"BBBGB":6629,"efgdg":6630,"EEEF":6631,"AFdA":6632,"AFDEF":6633,"FGAdf":6634,"FGAFDEFD":6635,"dcBdcA":6636,"AGBGA":6637,"defagfed":6638,"gfedce":6639,"eaecA":6640,"eaecd":6641,"eagede":6642,"GFEA":6643,"egef":6644,"GBef":6645,"fgc":6646,"ABcc":6647,"ABced":6648,"ABcAE":6649,"ABAcBA":6650,"ABAdB":6651,"ABAFF":6652,"ecAf":6653,"ecAGE":6654,"ecAAB":6655,"ecABGE":6656,"GBdf":6657,"dgBBAG":6658,"dgbage":6659,"agefd":6660,"dfgafd":6661,"edBBA":6662,"EDAD":6663,"dBGEFG":6664,"dAGFDD":6665,"eAec":6666,"dcAe":6667,"dcAGAB":6668,"FEDBA":6669,"FEDdef":6670,"GFGDB":6671,"EFBF":6672,"EGDB":6673,"BcAec":6674,"BABEFG":6675,"BAFBAFEF":6676,"BAFBABdf":6677,"AGEFGA":6678,"AGEEDB":6679,"AGEEDD":6680,"ccca":6681,"EADA":6682,"EAcecA":6683,"FFFE":6684,"efedcdec":6685,"afdge":6686,"cdecdcBA":6687,"dcBAdc":6688,"fgafb":6689,"fgafgfeg":6690,"AddABAFA":6691,"BGGdBG":6692,"gdBcd":6693,"efdBAG":6694,"GEDDED":6695,"dGdG":6696,"bagefg":6697,"baggfe":6698,"BEAB":6699,"BAGABcde":6700,"CECB":6701,"BAFAA":6702,"BAFAD":6703,"BAFABAFA":6704,"eceBe":6705,"EAAEA":6706,"fefdcA":6707,"BGEDEG":6708,"fafged":6709,"edecde":6710,"BcBABA":6711,"dBded":6712,"dBdgfe":6713,"Acega":6714,"BABdAG":6715,"efgabgeg":6716,"EFGAGE":6717,"gegb":6718,"ADFDA":6719,"dfedef":6720,"edcdBG":6721,"GBAGAB":6722,"aeb":6723,"aeefee":6724,"EFABA":6725,"EFAcB":6726,"EFABcAA":6727,"ageaba":6728,"edcAc":6729,"eBBc":6730,"eBBcBA":6731,"BGBdA":6732,"EDEA":6733,"EDEc":6734,"egfdB":6735,"gBfBeB":6736,"fBBABd":6737,"gabgf":6738,"BeeBe":6739,"DGGGAB":6740,"cAcf":6741,"fddafd":6742,"geccBc":6743,"DEDd":6744,"DEFGAG":6745,"cBcdedeg":6746,"gedBAd":6747,"FGEC":6748,"EBEAFD":6749,"cAGEDEFG":6750,"dfeAce":6751,"BAFEA":6752,"Bdgde":6753,"BdgBdg":6754,"AECE":6755,"cAAAcd":6756,"cAAAGF":6757,"cGcd":6758,"edefgedc":6759,"ADDADD":6760,"FDFAc":6761,"FDFAdfaf":6762,"Bcdefedc":6763,"AGFEDC":6764,"fedcBcde":6765,"dAFABAFA":6766,"ecca":6767,"eccgcc":6768,"GABGED":6769,"DDDFDFA":6770,"gagfde":6771,"gedcBcdB":6772,"gdBGB":6773,"efeca":6774,"BABcdBAF":6775,"faaafe":6776,"faabafef":6777,"fafdAdfd":6778,"dddAdfd":6779,"FGABcBAG":6780,"ceeBdd":6781,"degge":6782,"DGBGDGBG":6783,"gabafdf":6784,"fecAE":6785,"DEDDAG":6786,"dedcBGBd":6787,"beeg":6788,"ABGAFD":6789,"dfafbgec":6790,"FEFAFE":6791,"BdBABA":6792,"egedef":6793,"egedcA":6794,"FDADBD":6795,"ecAAcd":6796,"gbab":6797,"dBABGBdB":6798,"bgafgedg":6799,"gddedc":6800,"gddgdd":6801,"cABGEAAB":6802,"faafef":6803,"BAGBAGEG":6804,"afgefdcA":6805,"cefece":6806,"edegB":6807,"AGFGAG":6808,"gBBggB":6809,"afefdBAF":6810,"dfecdBAF":6811,"eaagedcA":6812,"fdefdBAF":6813,"degabg":6814,"AdAfA":6815,"ABcBAc":6816,"eBdBAF":6817,"gagedBGB":6818,"BcAGc":6819,"AGFDDF":6820,"gfddA":6821,"Begbag":6822,"BeedBAGA":6823,"egae":6824,"ABAGFEDF":6825,"egfedBAB":6826,"cBcdeged":6827,"gfgedcBA":6828,"gfdfece":6829,"dgfgdg":6830,"EAABcBce":6831,"fedefagf":6832,"cffga":6833,"EFABcfec":6834,"BEGBADFA":6835,"FAAFGFED":6836,"gdgbag":6837,"BGBAFAG":6838,"dBcABGAG":6839,"BdcAGc":6840,"BcdecdBAF":6841,"ceBeA":6842,"cAGcADD":6843,"BeedBeed":6844,"gedgeAA":6845,"DEGBAEE":6846,"FAcAGBdB":6847,"gebegbeg":6848,"FAdfecdB":6849,"FGEGDE":6850,"bgagegfa":6851,"cAdcAGG":6852,"cGBGAGEG":6853,"BBBeBfed":6854,"//|":6855,">.":6856,"Age":6857,"Bfed":6858,"Bfg":6859,"Bbagf":6860,"BgedBG":6861,"BfBf":6862,"CFG":6863,"CGG":6864,"CDD":6865,"DdA":6866,"Dmix":6867,"DGABG":6868,"DFEDFA":6869,"Eed":6870,"EGABd":6871,"EdE":6872,"EcBAGF":6873,"FdBA":6874,"FBAFEF":6875,"GcBG":6876,"GGEDE":6877,"JB":6878,"Ta":6879,"adef":6880,"aefd":6881,"aedcdB":6882,"bbab":6883,"bgfgaf":6884,"cfg":6885,"cEEE":6886,"cFAB":6887,"cfecB":6888,"dgfa":6889,"eBAG":6890,"ebd":6891,"egage":6892,"fBc":6893,"ffdf":6894,"ffedB":6895,"gBcd":6896,"gBcdB":6897,"ggagf":6898,"gdde":6899,"gdedBG":6900,"ĠBcd":6901,"ĠdBB":6902,"Ġ[|:":6903,"BAABc":6904,"edBAFB":6905,"BcBcA":6906,"efeg":6907,"efage":6908,"GADFA":6909,"GABAFA":6910,"cAdG":6911,"cAecB":6912,"cAeAd":6913,"Bdga":6914,"Bdged":6915,"Bdfg":6916,"Bdgfg":6917,"BdABd":6918,"Bdefed":6919,"BdFB":6920,"BdGBA":6921,"BdeB":6922,"BdfdBd":6923,"Bdefgfeg":6924,"FAcBA":6925,"FAFED":6926,"FABF":6927,"cdBdAF":6928,"GFGF":6929,"GEAF":6930,"GEFGAc":6931,"fdAG":6932,"fdBe":6933,"fdfec":6934,"fdAf":6935,"fddefd":6936,"fddede":6937,"DEFEFA":6938,"AAT":6939,"AAfed":6940,"AAFG":6941,"AAeA":6942,"gafa":6943,"ecged":6944,"ecBAG":6945,"ecedcB":6946,"cBAAce":6947,"cBAFEF":6948,"geefg":6949,"geefdd":6950,"FDDC":6951,"FDDCD":6952,"dBec":6953,"dBedB":6954,"dBeA":6955,"dBeAAB":6956,"afecAc":6957,"dddg":6958,"gedged":6959,"ABBAAG":6960,"feddef":6961,"feddcd":6962,"fedecd":6963,"deBc":6964,"deBAG":6965,"ĠDGB":6966,"ĠDFAd":6967,"Ador":6968,"cegfe":6969,"ceABc":6970,"ceeBee":6971,"feBc":6972,"feedBA":6973,"BBBcd":6974,"efgefd":6975,"efgefedB":6976,"EEFGA":6977,"EEEG":6978,"EEEFA":6979,"faecA":6980,"faaga":6981,"faeaca":6982,"dccd":6983,"defdBd":6984,"defdfa":6985,"ead":6986,"GFEFGABd":6987,"GBedcAA":6988,"eeBe":6989,"dBAAGA":6990,"dBAFDE":6991,"dBAdBGG":6992,"ABcAGF":6993,"ABAFADAFA":6994,"deddcd":6995,"ĠABcd":6996,"DFAFDFAF":6997,"DFAFGBed":6998,"ecAcde":6999,"ecABcB":7000,"GBdcB":7001,"GBdedc":7002,"GBdGBG":7003,"GBdBeBdB":7004,"dgdg":7005,"Accd":7006,"dfafe":7007,"edBBAA":7008,"dBGBAFDF":7009,"dAfA":7010,"eAcBA":7011,"dcdcBA":7012,"BeBe":7013,"FEDDEF":7014,"FEDCA":7015,"edccBA":7016,"EFd":7017,"DGBGBd":7018,"EGced":7019,"BcAGF":7020,"BcAGFDD":7021,"BABEEE":7022,"gfgdB":7023,"gfgdcB":7024,"AGEGD":7025,"ABdeg":7026,"ABdfefdB":7027,"cca":7028,"ggged":7029,"ggbg":7030,"gggb":7031,"EAFED":7032,"BGAFE":7033,"BGAEE":7034,"ffaf":7035,"fffe":7036,"fffg":7037,"ffece":7038,"fffef":7039,"dcBAFG":7040,"AFABAF":7041,"AFABdB":7042,"fgaegfdd":7043,"Added":7044,"AddAdd":7045,"BGGe":7046,"BGGBAFFA":7047,"agfgaf":7048,"ABcdcA":7049,"AFDd":7050,"eAABAG":7051,"eAABAB":7052,"DFBdc":7053,"efdfe":7054,"GEDCE":7055,"ĠBE":7056,"cAGGFG":7057,"bagbaged":7058,"BAGABcd":7059,"cBcAd":7060,"cBcBAB":7061,"gedBBA":7062,"dcBBAF":7063,"BGEFGABG":7064,"BGBBdB":7065,"BGBFB":7066,"BdBBdB":7067,"BEEcBA":7068,"BcBAGE":7069,"dBdAFD":7070,"fAeAdA":7071,"AceA":7072,"Acegf":7073,"efgeag":7074,"GABdd":7075,"GABdgedBA":7076,"efgafg":7077,"EFGD":7078,"EFGABG":7079,"EFGABE":7080,"EFGAGFED":7081,"gefdde":7082,"cAFFEF":7083,"dfedAG":7084,"dfedcBAG":7085,"DEFAAA":7086,"DEFAFD":7087,"edcAdc":7088,"agedcded":7089,"agedcAAB":7090,"FAFGFE":7091,"fBBABcdB":7092,"AGFGdc":7093,"cdefag":7094,"BAGFDFGA":7095,"BAGEGA":7096,"cEBEA":7097,"FDDcAA":7098,"ABGFG":7099,"ABGFGE":7100,"cecc":7101,"DEFGABcd":7102,"GAGD":7103,"GAGcG":7104,"FDECA":7105,"cAGEDEFA":7106,"dfegfagb":7107,"defgagfa":7108,"agaefaec":7109,"cAFAGABc":7110,"ABAGFA":7111,"ADDABc":7112,"ADDDA":7113,"GABcdef":7114,"FDFAB":7115,"BcdefgedB":7116,"gfefdedBd":7117,"bagfagfed":7118,"DGBdBG":7119,"BddBAG":7120,"BGGGB":7121,"afeaf":7122,"BFdcB":7123,"ECEE":7124,"ECCG":7125,"GABGdB":7126,"fgegfe":7127,"AGGD":7128,"gagfec":7129,"gdBGGB":7130,"cABcAG":7131,"cdedBGB":7132,"ABdefedc":7133,"GEDEC":7134,"CCCE":7135,"BBABG":7136,"fdecdcAB":7137,"AGFADF":7138,"ceeedc":7139,"BAAAB":7140,"DEDDB":7141,"GECCE":7142,"fdegfe":7143,"begfed":7144,"edefgdBd":7145,"FGFGB":7146,"Bffe":7147,"GBAGBd":7148,"GBAGFA":7149,"gfgege":7150,"cBcAGE":7151,"FDADBDAF":7152,"BAGFEGFE":7153,"gedegedB":7154,"agfgdB":7155,"BGGABcde":7156,"gAeA":7157,"CEAE":7158,"cABGEAA":7159,"cABGEFGE":7160,"BFAFEFGA":7161,"GFGEed":7162,"BAGBAEE":7163,"cefecB":7164,"abafa":7165,"BdGBc":7166,"FBBBAB":7167,"bagea":7168,"âĢ¨":7169,"Aaaa":7170,"afgedfed":7171,"agefgedB":7172,"FAdfef":7173,"Bcdedge":7174,"ABAGEGG":7175,"BGEGDEGA":7176,"ecBcAFEF":7177,"dBAFAFDF":7178,"cBAcBGG":7179,"degaga":7180,"EAcedc":7181,"dAdG":7182,"EAcAEA":7183,"EAcAEAcA":7184,"dFFcFF":7185,"dFFdEE":7186,"EBBEBB":7187,"fefgagfe":7188,"cAGFDF":7189,"edgdBA":7190,"GGAFG":7191,"Aceaed":7192,"fdadfddf":7193,"cdecAG":7194,"ECEGFDFA":7195,"eaageged":7196,"dGBGA":7197,"egfedf":7198,"FEEEFA":7199,"FAFEED":7200,"efecABcA":7201,"FECCE":7202,"ceecee":7203,"edddBA":7204,"EDFAA":7205,"cdBcABcd":7206,"EGBdcB":7207,"BddedBAG":7208,"feefc":7209,"eceaec":7210,"EFDEFDD":7211,"EGBeBG":7212,"dBAGFDFA":7213,"BGDGBA":7214,"gedBeAA":7215,"gfeBfe":7216,"BcdedcF":7217,"gGGfGG":7218,"DAFDEG":7219,"DGGFGABG":7220,"caBgAf":7221,"eddcAGEF":7222,"dFFdEEcE":7223,"Aagf":7224,"AcAFA":7225,"Acded":7226,"ADBDA":7227,"Bmin":7228,"DAd":7229,"Eeef":7230,"EAGEDE":7231,"EcEc":7232,"FFD":7233,"FdB":7234,"Fddcd":7235,"Gb":7236,"GGED":7237,"GFAF":7238,"GBAGB":7239,"Mi":7240,"Pg":7241,"Var":7242,"bdfd":7243,"beee":7244,"cgec":7245,"ccBB":7246,"dfdd":7247,"dcecd":7248,"eefd":7249,"eafec":7250,"eBAFDF":7251,"fAAA":7252,"fAdfa":7253,"gGB":7254,"ggfd":7255,"Ġ=":7256,"ĠGAB":7257,"BAg":7258,"BAdc":7259,"BAdBA":7260,"eddf":7261,"edefedBd":7262,"BcBGB":7263,"efdef":7264,"GAcAA":7265,"cAGFDD":7266,"cAFGAB":7267,"cAGFEC":7268,"Bddf":7269,"Bdgg":7270,"BdBcBA":7271,"Bdfedc":7272,"BdGBG":7273,"BdBeB":7274,"gfdcAG":7275,"FABAF":7276,"FAdBAF":7277,"FAdedc":7278,"FADFADFA":7279,"cdGBd":7280,"cddcB":7281,"cdfaf":7282,"cdecBA":7283,"BGg":7284,"BGFGA":7285,"BGdee":7286,"GFDG":7287,"GFDED":7288,"GEBA":7289,"GEGF":7290,"GEDEGABG":7291,"fdAFD":7292,"DEAc":7293,"AAGEF":7294,"gafedc":7295,"BcdBd":7296,"ecBGF":7297,"FEB":7298,"cBABcdeg":7299,"geage":7300,"dBBAA":7301,"dBgecg":7302,"afba":7303,"affg":7304,"afefec":7305,"afgfeg":7306,"ddfg":7307,"ddBAB":7308,"dddedBd":7309,"cBe":7310,"cBGABc":7311,"ABFG":7312,"fedBG":7313,"fedeg":7314,"fedafd":7315,"deBG":7316,"ĠDA":7317,"Adg":7318,"AdBAFA":7319,"ceaa":7320,"ceedBG":7321,"GGBdg":7322,"ĠGB":7323,"ĠGBB":7324,"feBcd":7325,"BAGcBA":7326,"DDDB":7327,"DDAD":7328,"AFFEFA":7329,"FGAE":7330,"faB":7331,"faad":7332,"dcBcdef":7333,"AGBG":7334,"gfedcAA":7335,"gfedBeed":7336,"eagaf":7337,"GFEc":7338,"GFEGBG":7339,"eggeg":7340,"eggec":7341,"eggag":7342,"eeedB":7343,"dBAGEF":7344,"gfebge":7345,"ABcBcA":7346,"ABAAGFG":7347,"ABAGFGAB":7348,"dedcAGFGA":7349,"iati":7350,"DFAdcA":7351,"DFAcAF":7352,"GABF":7353,"GABGABcd":7354,"ecABAG":7355,"GBdgag":7356,"dggbgg":7357,"agefge":7358,"AcBdc":7359,"dfAf":7360,"edBefg":7361,"EDDED":7362,"dBGGAG":7363,"dcdBA":7364,"dcdefdec":7365,"dcAEG":7366,"dcAGEC":7367,"BeBB":7368,"BeedBG":7369,"BeBgB":7370,"FEDCE":7371,"edcefg":7372,"DGc":7373,"DGDB":7374,"DGGAG":7375,"EGcedc":7376,"BcABGE":7377,"BABD":7378,"BABedB":7379,"gfgef":7380,"gfgba":7381,"AGEFD":7382,"AGEGBd":7383,"ABdefedf":7384,"ABdABdAB":7385,",|^":7386,"EAcea":7387,"BGABA":7388,"BGAGB":7389,"FFd":7390,"afdfedBd":7391,"afdfedBc":7392,"AFAG":7393,"AFAABc":7394,"AFAdcd":7395,"DEFGFG":7396,"DEFGFGA":7397,"fgaba":7398,"fgagfdd":7399,"AdddcA":7400,"BGGBGG":7401,"agff":7402,"agfefd":7403,"agfage":7404,"agfefgaf":7405,"ABcdea":7406,"ABcdcBABc":7407,"DFBA":7408,"GEDCDE":7409,"AGAe":7410,"dGGA":7411,"edBAGABd":7412,"GFGAGE":7413,"GFGAde":7414,"BEBE":7415,"BEGABG":7416,"bgc":7417,"cBcGE":7418,"DADD":7419,"bgagfg":7420,"bgafgfef":7421,"EAAE":7422,"EAAGABce":7423,"DCDEF":7424,"AGFDEF":7425,"fafgbg":7426,"BdBBA":7427,"baff":7428,"BcBAA":7429,"dBdgbg":7430,"BgBg":7431,"BgBeB":7432,"AFEDE":7433,"cBAGed":7434,"BABddB":7435,"BABdfe":7436,"EFGAd":7437,"cAFFA":7438,"cAFGFG":7439,"ADGA":7440,"ADDEFA":7441,"FBBd":7442,"dfedcd":7443,"edcdedd":7444,"abfa":7445,"aeed":7446,"aeefed":7447,"fgfdcA":7448,"FEFc":7449,"DEFABABd":7450,"AAAeAcA":7451,"ageedc":7452,"edcAFA":7453,"eBefg":7454,"eBgfeBfe":7455,"agedcAGc":7456,"EDEGED":7457,"egfdc":7458,"gabgfgaf":7459,"DGGBd":7460,"cdefec":7461,"cEGB":7462,"FDDc":7463,"efgfBB":7464,"DEFGABAF":7465,"cBcdf":7466,"cBcdegg":7467,"gedBABcd":7468,"BdeBd":7469,"ĠdGG":7470,"EBF":7471,"FDEFDF":7472,"BAFEDE":7473,"dAFDE":7474,"dAFFED":7475,"gfgagedB":7476,"gfgabaga":7477,"agaece":7478,"agabagfe":7479,"cGdG":7480,"edefef":7481,"GFDFGA":7482,"CDECA":7483,"DEGABAGA":7484,"cedBAF":7485,"FDFAdAFD":7486,"fgfedcdB":7487,"bagfdc":7488,"Bddcee":7489,"BGdGBA":7490,"fcfa":7491,"fcfg":7492,"fcfAf":7493,"ECCE":7494,"ecccde":7495,"GABGc":7496,"cAFGBc":7497,"eAcABcdf":7498,"EGBEG":7499,"EFEA":7500,"EFEDFA":7501,"faaafa":7502,"AcABGE":7503,"dddadbd":7504,"cABGABcA":7505,"fdecdBAB":7506,"aecBAB":7507,"degde":7508,"fdadfa":7509,"gabagedB":7510,"dedcBGG":7511,"GEEEFG":7512,"EFGEA":7513,"fdedfe":7514,"eaagef":7515,"EGAGE":7516,"bfafegfe":7517,"AdcdAF":7518,"EDDFA":7519,"fagfdc":7520,"efgfede":7521,"BdBGBdB":7522,"dBBABcdB":7523,"fdAfdA":7524,"cefea":7525,"EcBcde":7526,"EGGB":7527,"BdddcB":7528,"Aaaef":7529,"eedBe":7530,"Gggfg":7531,"AABAABA":7532,"ADFDADFD":7533,"defedf":7534,"ecBcAB":7535,"egdgeg":7536,"cdecdBGB":7537,"fedBAFEF":7538,"AffAff":7539,"gbagdB":7540,"gfddcA":7541,"bBaB":7542,"FEFGABcA":7543,"BAGEDC":7544,"BeedBAFA":7545,"cAeAcAAc":7546,"agedBedB":7547,"GECEGE":7548,"gdegd":7549,"GBAGFDDA":7550,"cdBcABGA":7551,"gbagfdde":7552,"Begebege":7553,"BDGBA":7554,"DEGABded":7555,"DEGABddB":7556,"BddedBGA":7557,"edcAGc":7558,"BedBAcBA":7559,"dcdefdAG":7560,"dddfdgd":7561,"egdgBAA":7562,"dABAdABA":7563,"effecABc":7564,"dBGdBGdB":7565,"EBGBE":7566,"aeaaea":7567,"eFdF":7568,"GBBABB":7569,"---":7570,"Beefgefd":7571,"edaded":7572,"eAedeAAB":7573,"dBAFGEED":7574,"gffeeddc":7575,"bBaBgBfB":7576,"ceaeceae":7577,"AcBdcedf":7578,"Variati":7579,"Variation":7580,"'|(":7581,")|":7582,"Aea":7583,"AeAA":7584,"AEB":7585,"Afff":7586,"Bece":7587,"Bgfge":7588,"Bgfefg":7589,"BFDFB":7590,"DABA":7591,"DFEDE":7592,"Ef":7593,"Emaj":7594,"EAGED":7595,"Fmaj":7596,"FcAc":7597,"FBAGFE":7598,"GcAF":7599,"GCC":7600,"GBcdcB":7601,"HF":7602,"Hg":7603,"Jg":7604,"Pd":7605,"aded":7606,"aAAB":7607,"abgafg":7608,"bgfd":7609,"caf":7610,"cED":7611,"cGED":7612,"cEFG":7613,"cBdc":7614,"dFGA":7615,"dEB":7616,"dBAGB":7617,"dGABA":7618,"ebb":7619,"egaf":7620,"eEEDE":7621,"gGBd":7622,"gdcA":7623,"gAf":7624,"ĠGG":7625,"ĠEE":7626,"Ġded":7627,"ĠGABcd":7628,"edBGE":7629,"Bceg":7630,"BcecA":7631,"efea":7632,"efagf":7633,"efac":7634,"GAGAB":7635,"GAEGE":7636,"cAD":7637,"BddA":7638,"Bdefd":7639,"Bdegf":7640,"BdgdB":7641,"BdfedB":7642,"Bddcde":7643,"BdBcec":7644,"gfdcd":7645,"gfafd":7646,"gfece":7647,"gfagfe":7648,"gfagfd":7649,"FAddcd":7650,"cdge":7651,"cdGG":7652,"cdfe":7653,"cdBGA":7654,"cdede":7655,"cdgdB":7656,"cdeAce":7657,"cdBcAB":7658,"BGFA":7659,"BGdc":7660,"BGBcde":7661,"BGBABc":7662,"BGFGAB":7663,"BGFABc":7664,"GFGBdg":7665,"GFDCA":7666,"GFGGBd":7667,"GEEDCDEG":7668,"|:||":7669,"fdce":7670,"fdBcdB":7671,"fdAFAd":7672,"fdfBf":7673,"fdgefdcA":7674,"fdcBAFFA":7675,"DECA":7676,"DEFEDE":7677,"DEGBdB":7678,"DEGEDB":7679,"DEDCD":7680,"DEFEDC":7681,"AAdB":7682,"AAAF":7683,"AABAB":7684,"gafef":7685,"gagedega":7686,"Bcda":7687,"BcdedBA":7688,"BcdBg":7689,"Bcdad":7690,"BcdBcdeg":7691,"BcdedcBc":7692,"BcdBcdec":7693,"ecBGA":7694,"ecece":7695,"eceAce":7696,"FECD":7697,"FEEB":7698,"FECC":7699,"cBAGBd":7700,"cBAAGA":7701,"cBABdB":7702,"cBAEAc":7703,"gecAd":7704,"FDGBd":7705,"dda":7706,"ddcde":7707,"cBEGA":7708,"Ġ|:^":7709,"gedBdega":7710,"fedBAG":7711,"fedABc":7712,"fedAFA":7713,"fedcBG":7714,"fedgfdcA":7715,"fedAdc":7716,"deef":7717,"decAG":7718,"deedBA":7719,"FGe":7720,"ĠDD":7721,"AdFG":7722,"Adefge":7723,"AdfedB":7724,"ceG":7725,"cegec":7726,"ceedcB":7727,"cecdB":7728,"ceagfdd":7729,"bagg":7730,"bagd":7731,"feea":7732,"BBBAB":7733,"DDDBD":7734,"efgc":7735,"efgde":7736,"efgded":7737,"EEd":7738,"EEDC":7739,"AFFD":7740,"AFGABd":7741,"AFFB":7742,"AFdBAF":7743,"AFFDFF":7744,"fadfe":7745,"fabafe":7746,"dccBc":7747,"defb":7748,"defgfga":7749,"defafa":7750,"gfedeaa":7751,"gfededBA":7752,"eaagfdef":7753,"GFEDD":7754,"GFEDG":7755,"GFEBE":7756,"egA":7757,"egdG":7758,"egbag":7759,"egdBAG":7760,"GBedc":7761,"GBedBG":7762,"fgefed":7763,"eeede":7764,"dBAf":7765,"dBAFGA":7766,"dBABe":7767,"dBAFBFAF":7768,"dBAFEFDE":7769,"gfegfed":7770,"ABcBGE":7771,"ABcABAFA":7772,"ABAAG":7773,"ABAGFDDF":7774,"dedBAFDF":7775,"ĠAEE":7776,"DFAA":7777,"DFAdA":7778,"GBdged":7779,"GBddBA":7780,"GBddcB":7781,"GBdege":7782,"dgdBd":7783,"dgdBc":7784,"AcedcB":7785,"AcecB":7786,"AcGcA":7787,"dfF":7788,"dfce":7789,"dfgaf":7790,"dBGF":7791,"dAe":7792,"dAcd":7793,"eAece":7794,"dcdBAG":7795,"dcdefa":7796,"dcAg":7797,"dcAAc":7798,"Begfe":7799,"Beefed":7800,"edcBcAA":7801,"EFGFG":7802,"DGd":7803,"DGFA":7804,"DGDG":7805,"DGBAGF":7806,"aac":7807,"aaged":7808,"BAFBA":7809,"DBDB":7810,"AGEGG":7811,"ABdBAB":7812,"ABdfedBA":7813,"cccBc":7814,"EAcBAG":7815,"ffA":7816,"FFFB":7817,"efedBABd":7818,"efedBdeg":7819,"afdcAG":7820,"afddefg":7821,"afdefee":7822,"dcBABcd":7823,"AFAdB":7824,"AFAfaf":7825,"AFAdBGBd":7826,"fgagfed":7827,"fgafeAce":7828,"AddBdd":7829,"AddBcAGE":7830,"BGGc":7831,"agfgfd":7832,"agfgfefed":7833,"ABcdcBAG":7834,"AFDBGE":7835,"eAAefg":7836,"DFFE":7837,"DFFEF":7838,"efdfa":7839,"GEDDE":7840,"eaabc":7841,"efeBAB":7842,"AGABcBAG":7843,"dGc":7844,"dGdBd":7845,"BEGABc":7846,"bgbagf":7847,"CEFA":7848,"cBcf":7849,"cBcAB":7850,"cBcAF":7851,"DADBDAD":7852,"GEEcGE":7853,"BAFAdB":7854,"bgagfe":7855,"fefb":7856,"fefdA":7857,"fefafe":7858,"dcBBcd":7859,"AGFF":7860,"fafef":7861,"fafedc":7862,"BdBg":7863,"ecdf":7864,"ecdBAG":7865,"ecdBGB":7866,"ecdBcAGE":7867,"dBdef":7868,"fAfAf":7869,"AcecdcBc":7870,"AFEGFDDE":7871,"efgeaa":7872,"GABdgf":7873,"GABdedBG":7874,"GABdcAFA":7875,"edBdedBd":7876,"EFGAcBA":7877,"EFGABABd":7878,"adfe":7879,"ADdD":7880,"dfede":7881,"dfedf":7882,"dfedcdec":7883,"dfedcedc":7884,"dfedcAAB":7885,"edcdefg":7886,"abb":7887,"GBAABd":7888,"GBAFGABc":7889,"GBAGFDDE":7890,"AAAcBA":7891,"EFABAB":7892,"agedcAGB":7893,"egfeg":7894,"gbbg":7895,"dfab":7896,"dfagec":7897,"Beeef":7898,"AGFGBA":7899,"FAdfdA":7900,"abagfd":7901,"abagfgaf":7902,"BcBGAB":7903,"DEDDE":7904,"FGEFDD":7905,"ĠdFF":7906,"cAGECDEG":7907,"BBBBAB":7908,"BABcBAFA":7909,"AEFD":7910,"cAFAGABd":7911,"cGec":7912,"edefedB":7913,"DGBGAGED":7914,"DGBGAGBG":7915,"GABcdcBA":7916,"GABcdedc":7917,"Adfde":7918,"Adfdadfd":7919,"dBGABAAB":7920,"cedefg":7921,"AaAA":7922,"fgfedBAF":7923,"BceBc":7924,"eBBgBB":7925,"ADFABEE":7926,"BGGGDGGG":7927,"AGFEB":7928,"AGFEFD":7929,"AGFEDB":7930,"BGdGBGG":7931,"fca":7932,"afeef":7933,"fdcABGGA":7934,"fdcAAGGF":7935,"fgeAA":7936,"fbbfaf":7937,"AcBAe":7938,"fBBaBB":7939,"gagfefed":7940,"dGGB":7941,"EGBGA":7942,"EFEGFE":7943,"BABcdc":7944,"egggfe":7945,"faaefg":7946,"AcAe":7947,"fafded":7948,"fafdefg":7949,"fAAaAA":7950,"BGEED":7951,"FAAEAA":7952,"cEEGAB":7953,"AGFAdf":7954,"eAfAe":7955,"DFAdAG":7956,"DGBGDG":7957,"Beedefg":7958,"GECCDE":7959,"GBBBdd":7960,"FGFEG":7961,"dedcBcdB":7962,"GABGAF":7963,"FGFDF":7964,"dBcABGGB":7965,"BDAF":7966,"BdBAd":7967,"egedcd":7968,"cBcAFD":7969,"EDCDFA":7970,"eaagbgag":7971,"BGGABcdB":7972,"gddedB":7973,"ecAcefge":7974,"afecBc":7975,"dBBABAFA":7976,"dBBAdBBA":7977,"dedBAGEG":7978,"faafgfef":7979,"faafafdf":7980,"gBBaccBc":7981,"eaaagf":7982,"aAAfAA":7983,"dBGBAGEG":7984,"gfefede":7985,"gfdcAdcA":7986,"ABBBAF":7987,"EGEB":7988,"AABAc":7989,"ABAGEDEG":7990,"EAAGAcBA":7991,"BdAFGFEF":7992,"BGEGBG":7993,"AdAeAf":7994,"AFEFDEFA":7995,"cABcdf":7996,"DEGABedB":7997,"dBgBdB":7998,"cdecdBAG":7999,"fddcdfag":8000,"edgdedBA":8001,"gabgab":8002,"GFAFG":8003,"EDEFGFED":8004,"fedcdBB":8005,"gbgefg":8006,"GEBEGEBE":8007,"GEBEGEEG":8008,"GBAFGFEF":8009,"EGFEDB":8010,"DAADAA":8011,"AFGEEG":8012,"ECEC":8013,"fefaaf":8014,"FEDFAA":8015,"FEDFAc":8016,"cdedcAGB":8017,"dBAGFDDA":8018,"dgBgdB":8019,"DFEGFA":8020,"ceAcBdGB":8021,"Bbba":8022,"GBAGFDDF":8023,"DEGABdge":8024,"ecacB":8025,"GcEcG":8026,"AFEGFDDA":8027,"cABAcA":8028,"ADEDAD":8029,"EABcBc":8030,"BGAFDGGF":8031,"egdeBd":8032,"abgafd":8033,"cedcBGAF":8034,"GFEDCDEF":8035,"ecBAFAAB":8036,"dfBfdfBf":8037,"faegfdde":8038,"gBBgBBgB":8039,"DAFDEGcG":8040,"Mix":8041,"!>!":8042,"'-":8043,"'-|":8044,"Amix":8045,"AedBd":8046,"AEFGAB":8047,"Bgeg":8048,"BBGdB":8049,"Cd":8050,"CAG":8051,"CDCA":8052,"Dmin":8053,"DBAB":8054,"DdF":8055,"DAAGA":8056,"DGEDB":8057,"EecA":8058,"EcBc":8059,"EcG":8060,"EFDFA":8061,"FdcA":8062,"FdcBA":8063,"FdAFd":8064,"Gdg":8065,"GedB":8066,"GCE":8067,"GDA":8068,"GDGBG":8069,"Jf":8070,"adcd":8071,"adefga":8072,"aecAc":8073,"bbagf":8074,"bfag":8075,"bbafa":8076,"bgfaaf":8077,"cFG":8078,"caged":8079,"cGAc":8080,"cfdcAF":8081,"dGAB":8082,"dFFF":8083,"dgfdc":8084,"dAdc":8085,"dgegdg":8086,"eedcB":8087,"fcBA":8088,"fcB":8089,"fBAB":8090,"fbag":8091,"ffdB":8092,"gBc":8093,"gBBB":8094,"gBeB":8095,"gefgaf":8096,"gdBABd":8097,"gcBAGB":8098,"ĠFGA":8099,"Ġeg":8100,"BAdd":8101,"BABGG":8102,"BAcea":8103,"edb":8104,"eddBA":8105,"edBGG":8106,"edfdedBd":8107,"edeAAf":8108,"edadda":8109,"BccA":8110,"BcBGE":8111,"efecAB":8112,"|||(":8113,"GAdB":8114,"GABAGB":8115,"GAcdeg":8116,"cAed":8117,"cAfe":8118,"cAcde":8119,"cAeAA":8120,"cAAAA":8121,"cABdcA":8122,"cAecAe":8123,"cAfcafcA":8124,"BdeAA":8125,"BdcAF":8126,"Bddefg":8127,"Bdefa":8128,"gfefe":8129,"FAdg":8130,"cdfd":8131,"cdGB":8132,"cdABG":8133,"cdBABG":8134,"BGed":8135,"BGGE":8136,"BGDGG":8137,"BGdGB":8138,"GFGED":8139,"GFGEGD":8140,"GEBG":8141,"GEFGAB":8142,"fdAB":8143,"fdded":8144,"fddg":8145,"fdcBG":8146,"fddedB":8147,"fddgdd":8148,"DECB":8149,"AAGAB":8150,"gaff":8151,"gagB":8152,"gagedc":8153,"gagedg":8154,"Bcdfg":8155,"Bcdegg":8156,"BcdBcAA":8157,"Bcdefgfge":8158,"FEFF":8159,"cBABd":8160,"cBAFB":8161,"cBABGAF":8162,"geafd":8163,"geede":8164,"dBBcd":8165,"dBBde":8166,"dBFDE":8167,"dBBdA":8168,"afag":8169,"ddG":8170,"ddcAG":8171,"ddcdB":8172,"cBBf":8173,"Ġ|:.":8174,"gedgedBA":8175,"gedcBGGB":8176,"ABBe":8177,"fededcd":8178,"fedfedB":8179,"fedBdA":8180,"deE":8181,"decAA":8182,"degage":8183,"AdFE":8184,"ceBA":8185,"cecAB":8186,"cegedc":8187,"cecdBG":8188,"GGGEGce":8189,"bagfef":8190,"bagag":8191,"feaef":8192,"BAGDE":8193,"BAGBAF":8194,"BAGBABce":8195,"BBF":8196,"DDFE":8197,"DDFG":8198,"DDDG":8199,"efgged":8200,"EEGE":8201,"AFGF":8202,"AFdBA":8203,"AFDEFG":8204,"AFFAB":8205,"AFGFEF":8206,"AFCFAF":8207,"FGAcAA":8208,"FGADEFG":8209,"FGAFGABd":8210,"fadef":8211,"faeg":8212,"dcac":8213,"dcBcAA":8214,"dcBGGB":8215,"AGe":8216,"defdec":8217,"gfedBBA":8218,"eagae":8219,"GFEGFD":8220,"GFEDCA":8221,"egdBGB":8222,"GBedcBAG":8223,"fggfed":8224,"fgecc":8225,"eeefece":8226,"dBAAGE":8227,"dBABdA":8228,"ABcAGA":8229,"ABAFEF":8230,"dedBg":8231,"dedBcBAG":8232,"DFAdcB":8233,"DFAdcAG":8234,"DFAFGFEF":8235,"ecAAc":8236,"ecAAGF":8237,"ecABcBA":8238,"ecAAdc":8239,"ecAGFA":8240,"GBdBg":8241,"dgBgg":8242,"agba":8243,"Acg":8244,"Acfed":8245,"AcFc":8246,"AcfcA":8247,"Acefgecd":8248,"dfbagfed":8249,"edBed":8250,"dBGe":8251,"dBGBcAA":8252,"dBGGBG":8253,"dAGFGA":8254,"eAea":8255,"eAcAB":8256,"dcdAB":8257,"dcdABc":8258,"dcdfdf":8259,"dcdBed":8260,"dcdefaaf":8261,"dcAFD":8262,"dcAAGA":8263,"BeefedBc":8264,"FEDAFD":8265,"GFGBGB":8266,"EFFF":8267,"EFDEFG":8268,"EFDEFD":8269,"DGGABc":8270,"DGGEGG":8271,"|]|":8272,"|][|:":8273,"aaag":8274,"aaaage":8275,"BAFBAF":8276,"gfgec":8277,"gfgefd":8278,"gfgece":8279,"DBBABd":8280,"AGECE":8281,"ABdcB":8282,"ccBcA":8283,"ggc":8284,"EAGFED":8285,"EADEAc":8286,"BGAcBA":8287,"ffge":8288,"ffffed":8289,"FFGF":8290,"FFFABde":8291,"afdgf":8292,"afdAFD":8293,"AFABA":8294,"AFAcBA":8295,"AFAdfd":8296,"fgagb":8297,"fgafdf":8298,"fgagfdde":8299,"AddcB":8300,"Adddef":8301,"Addcdefa":8302,"ABcdeA":8303,"ABcdecBA":8304,"AFDdAF":8305,"eAABAA":8306,"eAAGABcd":8307,"eAAAf":8308,"cAAcB":8309,"cAAceAce":8310,"GEDA":8311,"GEDGAB":8312,"GEDBcABA":8313,"ĠBee":8314,"eaaea":8315,"eaaeg":8316,"efeef":8317,"AGABAGE":8318,"AGABAGEG":8319,"dGBcd":8320,"dGBGd":8321,"GFGABGBd":8322,"BEBe":8323,"bgefge":8324,"bgdcdf":8325,"CECE":8326,"cBcefg":8327,"cBcGEDD":8328,"EAAe":8329,"EAAcBGGB":8330,"fefgfedc":8331,"fafecB":8332,"fafege":8333,"BEEEFG":8334,"BEEFGABc":8335,"BEEcEE":8336,"BEEBEFG":8337,"GEGDE":8338,"dBdge":8339,"GFEDCEAG":8340,"fAde":8341,"fAgAfA":8342,"BgBA":8343,"Bgdg":8344,"AceecA":8345,"Acegec":8346,"Acegfdd":8347,"BABdc":8348,"GABdge":8349,"GABdeged":8350,"efgagfg":8351,"efgabg":8352,"efgabc":8353,"DEGc":8354,"DEGBGG":8355,"EFGFA":8356,"EFGABcd":8357,"gefdd":8358,"gefedc":8359,"BAAf":8360,"fececA":8361,"fgffec":8362,"DEFAAF":8363,"DEFAdefa":8364,"agecde":8365,"ageded":8366,"agedcAGE":8367,"BGBde":8368,"BGBdBA":8369,"EDEC":8370,"EDEGB":8371,"EDEGFG":8372,"gbba":8373,"gbgfg":8374,"fBb":8375,"fBfB":8376,"gabe":8377,"Beeege":8378,"DGGBAB":8379,"fddfdd":8380,"FAdBAG":8381,"abageg":8382,"cdefgedg":8383,"BcBF":8384,"BcBBGE":8385,"efgfdcA":8386,"DEFGAddc":8387,"GGGc":8388,"GGGd":8389,"GAGGFE":8390,"GAGGFG":8391,"EBEG":8392,"cAGEAG":8393,"BAFDC":8394,"BBBBcd":8395,"dfea":8396,"dfecdefg":8397,"dfegfdcA":8398,"defgafdB":8399,"BAFEFB":8400,"gfgaba":8401,"AEcE":8402,"agaeef":8403,"cAAAGE":8404,"cAAAAA":8405,"GFDFG":8406,"GFDGFD":8407,"CDEFGB":8408,"ADDBAF":8409,"GABcdBAG":8410,"GABcdefa":8411,"AdfdeBB":8412,"DEGABGBd":8413,"fdBF":8414,"dBAFGFED":8415,"gfefedc":8416,"gfefdedBA":8417,"fgfedcBA":8418,"dAAfed":8419,"dAAdAA":8420,"eBBeB":8421,"ADFAdcBA":8422,"AGFEFA":8423,"AGFEAG":8424,"||:(":8425,"cdBgfge":8426,"fdcABGGF":8427,"BFBc":8428,"ECCC":8429,"fgecA":8430,"fbd":8431,"DDDdD":8432,"AcBAB":8433,"AcBAGA":8434,"gagfaf":8435,"gedcBGBd":8436,"efecBABc":8437,"eAcAe":8438,"EFEDD":8439,"agfedcBc":8440,"cdedce":8441,"BABcdedc":8442,"gedBGBdB":8443,"ABcAFG":8444,"EEEBEdE":8445,"ABdefaa":8446,"faaecA":8447,"gdBdBG":8448,"gdBdcAFA":8449,"dddAd":8450,"FGABcBcd":8451,"BGEEFE":8452,"BGEEGB":8453,"fdcdA":8454,"fdcdAF":8455,"cABGAG":8456,"fdecdfag":8457,":|][|:":8458,"DFAdFAdf":8459,"dBAFEFDF":8460,"FADFG":8461,"FADFED":8462,"DGBGDB":8463,"Beedefga":8464,"BAAAGA":8465,"BAAABd":8466,"GECEF":8467,"edefgbaf":8468,"FGFDE":8469,"FGFFDD":8470,"GABABA":8471,"dBcABcdB":8472,"ABAFADAFG":8473,"dfffd":8474,"AcBEED":8475,"AAAAGA":8476,"gfedcbag":8477,"GBAGFAGF":8478,"gedegaba":8479,"AGEGGABd":8480,"agfgec":8481,"afedBcde":8482,"eAceAc":8483,"gbabge":8484,"eaagefg":8485,"BGGAGEDEG":8486,"bfafef":8487,"AdcdAd":8488,"Adcdfdcd":8489,"fagfeg":8490,"CEABAG":8491,"cdcBADFA":8492,"EFEDC":8493,"GFGABEE":8494,"ABcdegfe":8495,"EcGE":8496,"bageag":8497,"gBBBAB":8498,"afefc":8499,"fgedef":8500,"eeddd":8501,"gagea":8502,"BdcABAFA":8503,"efgedefg":8504,"GAGEDEGA":8505,"AEEcA":8506,"ABAGEDEF":8507,"degabggf":8508,"eAcef":8509,"bagafgfed":8510,"cdecdefd":8511,"cdecdcAG":8512,"FEFDDF":8513,"fddcdefa":8514,"fedcBGAB":8515,"ffffe":8516,"eBdBAB":8517,"AFdFEFD":8518,"GDBDG":8519,"fedcdBAF":8520,"cFFcd":8521,"EGcGEDD":8522,"fAdfedBd":8523,"BeedBAA":8524,"gfafgfed":8525,"FAdAFEE":8526,"dBAGFDDF":8527,"gecege":8528,"CEECE":8529,"GDGBAG":8530,"fgafdefd":8531,"BbMaj":8532,"fedefaa":8533,"cffecB":8534,"FDCDFGAc":8535,"Bdegge":8536,"fdAdfgaf":8537,"ecace":8538,"GEcED":8539,"FABcdBAG":8540,"cAdAeA":8541,"accaBB":8542,"cGcece":8543,"dddfdadfd":8544,"gAfAeA":8545,"BGAFDc":8546,"DDDADFA":8547,"GBdGBdGB":8548,"BdAFEGFE":8549,"gafgefde":8550,"dBAcBGGB":8551,"cedcBAGF":8552,"cedcBAGB":8553,"BGcABGG":8554,"dggabgaf":8555,"CEGEFAdc":8556,"gbgege":8557,"FDADFDD":8558,"gedBeBdB":8559,"FGAGFDEF":8560,"ABdfeBB":8561,"ecAcegfe":8562,"afbfafed":8563,"dGGGdGBd":8564,"fdfafdfa":8565,"dfbcea":8566,"egcgeg":8567,"dDcDBDAD":8568,"eBceB":8569,"dfafdfaf":8570,"AABGFED":8571,"cAdBefga":8572,"aeceaece":8573,"DFBFdFBF":8574,"gBfBeBdB":8575,"geaege":8576,"FDGDFDDD":8577,"AGcGEDD":8578,"BFABFA":8579,"BDADG":8580,"efeefeea":8581,"geBegeBe":8582,"EBGEFAdA":8583,"cGAGccG":8584,"Aaafecef":8585,"gbefgbeg":8586,"gBgBaB":8587,"GBEBGBEB":8588,"DFBdcFAc":8589,"BBGdBBGd":8590,"eAAAfAAA":8591,"accaBBgB":8592,"-|]":8593,"22":8594,"Aedc":8595,"Aefd":8596,"Aac":8597,"Agec":8598,"AcAGA":8599,"Acdec":8600,"AeAfAeA":8601,"AedBc":8602,"Bec":8603,"BecA":8604,"Befge":8605,"BBAFD":8606,"BaB":8607,"Bgfged":8608,"CFE":8609,"CAGF":8610,"CDEFA":8611,"CDEFGAB":8612,"DFDFA":8613,"DDEFG":8614,"EBcd":8615,"Edc":8616,"EBdB":8617,"EBADFA":8618,"EGFDDE":8619,"FBe":8620,"FcE":8621,"FBABde":8622,"Gcde":8623,"GDEF":8624,"GcAG":8625,"GGABc":8626,"GBcAA":8627,"GDCB":8628,"GFAdf":8629,"PG":8630,"bcd":8631,"bfe":8632,"bBdB":8633,"cba":8634,"cag":8635,"ccBAG":8636,"cbagf":8637,"cgcac":8638,"dae":8639,"dac":8640,"dgab":8641,"dDGBd":8642,"eD":8643,"eba":8644,"eefga":8645,"eedcd":8646,"eBcB":8647,"eefee":8648,"fAB":8649,"fBcB":8650,"fccc":8651,"fAdef":8652,"ggedB":8653,"gAg":8654,"ggee":8655,"Ġce":8656,"ĠCD":8657,"ĠFB":8658,"BAa":8659,"BAcd":8660,"BAEF":8661,"BABAF":8662,"BAABd":8663,"BAFEDB":8664,"edfa":8665,"edGBG":8666,"efb":8667,"efefg":8668,"efefd":8669,"efgedBA":8670,"efafe":8671,"efdcde":8672,"efddf":8673,"GABAB":8674,"GAGGG":8675,"GAGFDD":8676,"cABd":8677,"cAde":8678,"cAdcAd":8679,"Bdee":8680,"BdGABd":8681,"BdcdB":8682,"BdcBAB":8683,"Bddefe":8684,"BdggdB":8685,"Bdefgage":8686,"Bdefgfge":8687,"gfad":8688,"gfgfef":8689,"gfeage":8690,"gfefgfeg":8691,"FAAAA":8692,"FAEFD":8693,"cdag":8694,"cdfef":8695,"cdcBG":8696,"cdefgage":8697,"BGBcA":8698,"BGGABd":8699,"BGdBcA":8700,"BGGFGABd":8701,"GFc":8702,"GFDA":8703,"GFGEDE":8704,"fdcBc":8705,"fdfaf":8706,"fdAFE":8707,"fdegf":8708,"fdcf":8709,"fdfagfed":8710,"fdedBAFA":8711,"DEDFA":8712,"DEDEG":8713,"DEFEDB":8714,"AAed":8715,"AAFE":8716,"AAdA":8717,"AABAF":8718,"gabaf":8719,"gafecA":8720,"Bcdfd":8721,"BcdBGB":8722,"BcdedcBA":8723,"Bcdefa":8724,"Bcdgedc":8725,"BcdABGFED":8726,"ecefg":8727,"ececA":8728,"ecccc":8729,"cBAg":8730,"cBAefg":8731,"cBAGABcd":8732,"cBABcBB":8733,"geA":8734,"geec":8735,"gecAGE":8736,"geagea":8737,"FDc":8738,"FDGE":8739,"FDDDD":8740,"dBgf":8741,"dBBAGA":8742,"afcf":8743,"afbafd":8744,"afecAB":8745,"affdff":8746,"ddAA":8747,"dddfa":8748,"cBBAG":8749,"cBBAA":8750,"geded":8751,"gedege":8752,"ABFA":8753,"decAc":8754,"deeede":8755,"ĠDFF":8756,"AdBcde":8757,"ceAd":8758,"ceede":8759,"ceABce":8760,"cegecA":8761,"ceBdcAA":8762,"ceagfdde":8763,"GGe":8764,"GGDB":8765,"ĠGBdg":8766,"fecAA":8767,"feede":8768,"BAGdGBG":8769,"BBBAFA":8770,"DDFAd":8771,"EEDEG":8772,"AFdB":8773,"AFdc":8774,"AFBEE":8775,"AFGEF":8776,"FGAGG":8777,"FGAFED":8778,"FGADEF":8779,"FGABAGFG":8780,"FGAFGABG":8781,"fadd":8782,"faafed":8783,"fabafd":8784,"fabafb":8785,"dcBce":8786,"AGBdB":8787,"defBcd":8788,"defab":8789,"defdAF":8790,"gfedBcBA":8791,"gfedBded":8792,"eagfd":8793,"eabc":8794,"GFEGFE":8795,"eggedB":8796,"GBedcB":8797,"eeege":8798,"eeAcB":8799,"dBAAB":8800,"dBAABA":8801,"gfeBB":8802,"gfegfedc":8803,"ABcefg":8804,"ABcAFA":8805,"ABcAFD":8806,"ABcAce":8807,"ABAefg":8808,"ABAFGA":8809,"ABAdAF":8810,"ABAFDEFG":8811,"ABAGFGAF":8812,"dedef":8813,"dedcAFG":8814,"DFAcB":8815,"DFAdBA":8816,"GABEFG":8817,"GABDGB":8818,"ecAFE":8819,"ecAAGA":8820,"ecAGEG":8821,"dgdBA":8822,"dggedBGB":8823,"AccB":8824,"dffed":8825,"dfBdf":8826,"edBgfg":8827,"edBedBAB":8828,"dBGED":8829,"dBGBg":8830,"dAD":8831,"dAGA":8832,"dABAG":8833,"dAeAfA":8834,"dABdAF":8835,"eAef":8836,"eABAGB":8837,"eAceg":8838,"dcdfd":8839,"dcdeA":8840,"dcdege":8841,"dcdBABde":8842,"dcABAG":8843,"dcAGc":8844,"dcABcAGE":8845,"BeBd":8846,"Beec":8847,"FEDc":8848,"FEDded":8849,"FEDCDE":8850,"GFGBAFDF":8851,"EFDEF":8852,"BcAEF":8853,"aagea":8854,"gfgdBGG":8855,"AGEABc":8856,"AGEFGABc":8857,"ABdefa":8858,"ABdfedBd":8859,"ccGE":8860,"EAe":8861,"EAcBAF":8862,"BGAFGABc":8863,"BGAGEA":8864,"BGAGEGG":8865,"fffa":8866,"FFFEFAB":8867,"-|[":8868,"afdAF":8869,"afdede":8870,"afdefa":8871,"afdfefdB":8872,"cdeAdc":8873,"dcBAA":8874,"AFAE":8875,"DEFFEF":8876,"fgaged":8877,"fgaefd":8878,"fgabaf":8879,"fgafgfec":8880,"AdddA":8881,"AddBcBAG":8882,"BGGcGG":8883,"agffed":8884,"agffcA":8885,"gdG":8886,"gdb":8887,"gdfdedBd":8888,"AFDFAc":8889,"DFC":8890,"GEDDEFG":8891,"efeecB":8892,"AGAE":8893,"AGAFGA":8894,"AGABcded":8895,"GFGAd":8896,"bagged":8897,"bagbagfa":8898,"BEBc":8899,"BEGBd":8900,"BEFGAB":8901,"BEGBe":8902,"BEGEBEGE":8903,"bgge":8904,"bgdc":8905,"BAGAc":8906,"CEGA":8907,"CECG":8908,"cBcg":8909,"cBced":8910,"BAFAdA":8911,"gedBBAGB":8912,"bgagfd":8913,"bgagfdd":8914,"bgagegdB":8915,"bgafgfde":8916,"EAABcBAG":8917,"feffed":8918,"fefBB":8919,"fefag":8920,"dcBGAB":8921,"DCDA":8922,"AGFDG":8923,"BGBF":8924,"edegfg":8925,"BEEGEE":8926,"BEEEB":8927,"ecdefg":8928,"ecdBAAA":8929,"dBdBd":8930,"dBdece":8931,"fAfe":8932,"BgBf":8933,"Acee":8934,"Aceaf":8935,"AFEFAB":8936,"AFEDFAB":8937,"cBAGBA":8938,"BABded":8939,"BABdcA":8940,"BABdcBAG":8941,"EFGd":8942,"EFGGFG":8943,"edBdd":8944,"EFGAc":8945,"adfdad":8946,"adfdedBd":8947,"gefgfe":8948,"gegBA":8949,"ADDE":8950,"ADFGA":8951,"feceg":8952,"fecBABce":8953,"abfe":8954,"GBABG":8955,"aeefec":8956,"fgffga":8957,"DEFAF":8958,"AAAefge":8959,"eBef":8960,"FAFDE":8961,"FAFGEC":8962,"EDEFEDB":8963,"egfec":8964,"egfdcd":8965,"egfgedBA":8966,"egfddc":8967,"egfdedBA":8968,"defgb":8969,"gbed":8970,"dfaecA":8971,"dBBf":8972,"gabbag":8973,"Beegfe":8974,"DGGBdd":8975,"cAca":8976,"abagag":8977,"abaaec":8978,"cdefdB":8979,"BAGEEG":8980,"edcBABce":8981,"DEDFDF":8982,"FDDFDD":8983,"ABGBA":8984,"cecfc":8985,"cBcdg":8986,"efaefaef":8987,"gedBAGAB":8988,"GAGdBG":8989,"FDEFGB":8990,"defgagfed":8991,"defgafbf":8992,"BAFEG":8993,"BAFECB":8994,"dAFFEF":8995,"edBGc":8996,"Bdggfg":8997,"agafga":8998,"cAFAB":8999,"cGceg":9000,"edefgedg":9001,"GFDGA":9002,"CDEDC":9003,"dfdfaf":9004,"ABAGFAde":9005,"GABcdc":9006,"GABcdg":9007,"cedBc":9008,"cedBB":9009,"Aaec":9010,"Aagfed":9011,"eBBBAB":9012,"cdefgefe":9013,"DGBdc":9014,"DGBdgd":9015,"AGFEDEFA":9016,"bgeafd":9017,"cdBBd":9018,"dAFAGF":9019,"dAFAdfed":9020,"dAFADFAd":9021,"dAFAGBAG":9022,"fcff":9023,"afegfedB":9024,"fdcAAB":9025,"fdcAGABd":9026,"BFFE":9027,"fgecAF":9028,"AGGGBd":9029,"AGGBGG":9030,"GcGE":9031,"GccdeAA":9032,"EDBD":9033,"FAcfcA":9034,"cAGAcA":9035,"cAGAde":9036,"EEEGFE":9037,"EEEBE":9038,"EEEBcdB":9039,"faaAAA":9040,"faagab":9041,"AcAAGE":9042,"Bcdefgefd":9043,"FGABcBcA":9044,"BGFGBc":9045,"BGEEGA":9046,"fdcdcA":9047,"FAAFG":9048,"eeeedc":9049,"GEFDEFGA":9050,"GEFDEFGE":9051,"AGFAGE":9052,"aecBce":9053,"FdAd":9054,"degBAG":9055,"agfeB":9056,"fecAe":9057,"efdBBA":9058,"beede":9059,"BdfBd":9060,"edefgdBG":9061,"dBcAFG":9062,"FEFAcA":9063,"FEFAFF":9064,"AcBEE":9065,"AAAABde":9066,"BdcBGB":9067,"cBcAce":9068,"fagefdBd":9069,"defdBcdB":9070,"agfgefdec":9071,"eaagefgf":9072,"EGAcd":9073,"EGAEGA":9074,"dGBdc":9075,"AGABGABd":9076,"dcdefAA":9077,"EDDA":9078,"dBBABB":9079,"BFAFEDB":9080,"GFGEAG":9081,"abafedef":9082,"dedBdgdBd":9083,"abagec":9084,"abagefge":9085,"afefae":9086,"Bdddge":9087,"aAAa":9088,"fedfedcd":9089,"dfecdAFA":9090,"Aaaged":9091,"fgedcB":9092,"eaageddc":9093,"FGAFGFED":9094,"ABAGEGAB":9095,"BdAdBd":9096,"dedcBAGF":9097,"eaafaa":9098,"cdBAd":9099,"dBgBAAA":9100,"ecBcABce":9101,"egdgegdB":9102,"EBBBcd":9103,"eBdBB":9104,"fedBAd":9105,"edgBA":9106,"gabgageg":9107,"aeeea":9108,"aeeedc":9109,"EDEFGE":9110,"BcdegdB":9111,"Afffef":9112,"gbgged":9113,"GBAFGFED":9114,"gedBdGG":9115,"dcdfedce":9116,"BcABEE":9117,"DAAD":9118,"BAGABedB":9119,"BeedBAAG":9120,"GEFDEC":9121,"bafaed":9122,"FEDFAAB":9123,"FEDADBDAF":9124,"cdedcAAc":9125,"EGDGEGDG":9126,"EGDGEGAB":9127,"babged":9128,"Aeeedc":9129,"decdBAF":9130,"DFECD":9131,"GFGABdgf":9132,"bgafgbag":9133,"gefgef":9134,"BAGGBd":9135,"AEAcB":9136,"dcBGFD":9137,"dgfgdgfg":9138,"BbfdB":9139,"dgbgdg":9140,"BABcAE":9141,"eddcdBAF":9142,"AFFEED":9143,"GBAGFDDg":9144,"caacaa":9145,"defedBBA":9146,"abagfddc":9147,"FAAdfe":9148,"DBBDcc":9149,"AddcAdcA":9150,"FAdAFAdf":9151,"FDADFDDF":9152,"dddfdad":9153,"eagaeaga":9154,"eggegg":9155,"BGAFDGGA":9156,"EccE":9157,"geeege":9158,"agfagfde":9159,"dGeGd":9160,"GdBGFcAF":9161,"FDAFGFED":9162,"fBdBfBde":9163,"afecdBBA":9164,"afcfcfaf":9165,"dfefdf":9166,"ecdBcAAg":9167,"cAGGDGG":9168,"fBgBaB":9169,"gedgeAAG":9170,"AaAgAf":9171,"EDGDE":9172,"gbbbag":9173,"dfedcAdc":9174,"edcedcBd":9175,"cdedcded":9176,"fbbabafe":9177,"fdadf":9178,"dDcDBDAF":9179,"FADEFEE":9180,"acaAa":9181,"GMajor":9182,"gfefBBfBB":9183,"Begbeg":9184,"gefdBee":9185,"gBdgBdgB":9186,"gfgdecAF":9187,"AGEFGEDG":9188,"ABdefeef":9189,"GAAAcAAA":9190,"GAdAcde":9191,"fAgAa":9192,"afbfafde":9193,"ecBdcBGF":9194,"dcdfecAg":9195,"GBAcBdce":9196,"eAdefddc":9197,"fBBABdFG":9198,",:||":9199,"23":9200,"<|":9201,"Afa":9202,"Agfg":9203,"Aeee":9204,"Acdeg":9205,"AfecB":9206,"AcAGEC":9207,"Baf":9208,"BBAGF":9209,"BedcB":9210,"BfdBA":9211,"BFBF":9212,"CAGE":9213,"CFDC":9214,"DAGE":9215,"DGFGA":9216,"DBBB":9217,"DGFD":9218,"DDEFD":9219,"DFEFG":9220,"DFEDA":9221,"Ecd":9222,"EBAG":9223,"EcAF":9224,"EBcB":9225,"Eeefe":9226,"Fcd":9227,"FBAFA":9228,"FdBAFE":9229,"FCF":9230,"FGEGDG":9231,"GBcA":9232,"GBGG":9233,"GGEG":9234,"GBcB":9235,"GccBc":9236,"GBABdf":9237,"HE":9238,"He":9239,"PE":9240,"``":9241,"addd":9242,"bBAB":9243,"bbg":9244,"bgegdB":9245,"befeB":9246,"cgeg":9247,"ccAc":9248,"cedef":9249,"cbb":9250,"cfagf":9251,"cFFF":9252,"dEA":9253,"dafg":9254,"dgfedB":9255,"dBcdBG":9256,"dgeaaf":9257,"eBGB":9258,"ebe":9259,"fDFA":9260,"fbagf":9261,"ffee":9262,"ĠeA":9263,"ĠcAA":9264,"Ġeaa":9265,"BAde":9266,"BAFDD":9267,"edecA":9268,"ededc":9269,"edfded":9270,"edefedcB":9271,"edeage":9272,"BcABce":9273,"efgedc":9274,"cAEE":9275,"cAag":9276,"cAEF":9277,"cABEE":9278,"cAcAd":9279,"cAcecA":9280,"cABAFB":9281,"cAeAc":9282,"cAdBGd":9283,"BdD":9284,"BdAFF":9285,"Bddeg":9286,"BdABAF":9287,"BdBcAG":9288,"gfdBd":9289,"gffgf":9290,"FAed":9291,"FAEE":9292,"FAdBA":9293,"FAAE":9294,"FAdefe":9295,"FAFFF":9296,"cdD":9297,"cdb":9298,"cdff":9299,"cdfga":9300,"cdedBd":9301,"cdfec":9302,"cdfgf":9303,"cdcdf":9304,"BGBcBA":9305,"BGcABG":9306,"GFFED":9307,"GFdF":9308,"GEm":9309,"GEAG":9310,"GEGABd":9311,"GEEDB":9312,"|:^":9313,"fdAA":9314,"fdedBG":9315,"fdAGFE":9316,"fdfedc":9317,"fdafe":9318,"fdddd":9319,"fdgfec":9320,"fdBgec":9321,"DEGFE":9322,"DEGBd":9323,"DEGED":9324,"DECD":9325,"DEFEF":9326,"DEDFAd":9327,"DEFEDA":9328,"DEGBdd":9329,"AAGFE":9330,"AAAGA":9331,"AAAD":9332,"AAFAd":9333,"AAGABedB":9334,"Bcdgf":9335,"BcdcBc":9336,"BcdgedB":9337,"BcdcdB":9338,"BcdBcAFA":9339,"Bcdefgfef":9340,"ecgcac":9341,"eccBcdef":9342,"FEc":9343,"FEAD":9344,"FEEFA":9345,"FEFAd":9346,"FEFDF":9347,"FEFDA":9348,"cBAAB":9349,"cBAAG":9350,"cBAdBG":9351,"cBAcde":9352,"cBABcBA":9353,"geBG":9354,"geged":9355,"gegg":9356,"gebge":9357,"gecdcB":9358,"FDcA":9359,"FDBAG":9360,"FDDEF":9361,"dBE":9362,"dBge":9363,"afefed":9364,"affgee":9365,"ddF":9366,"ddfa":9367,"ddedB":9368,"dddedcd":9369,"gedfe":9370,"gedGB":9371,"gedecAA":9372,"ABDB":9373,"ABFAFE":9374,"fedec":9375,"feddcB":9376,"deBB":9377,"deBe":9378,"degfg":9379,"deae":9380,"deage":9381,"decdcA":9382,"AdBAG":9383,"AdBAGF":9384,"AdABAG":9385,"AdAFED":9386,"AdAFDF":9387,"AdcAGF":9388,"AdAFAA":9389,"cegf":9390,"cegg":9391,"cecdcB":9392,"ceAcB":9393,"ceagfd":9394,"ceegfddf":9395,"GGcA":9396,"GGGE":9397,"GGBAG":9398,"GGGEG":9399,"GGBGdGBG":9400,"baaa":9401,"bagee":9402,"feeA":9403,"feece":9404,"fecAF":9405,"feeaee":9406,"BAGBc":9407,"BAGcAG":9408,"BAGDGB":9409,"BAGBAGFE":9410,"BBBAG":9411,"DDcB":9412,"DDAF":9413,"DDDEG":9414,"DDCA":9415,"efgG":9416,"efgABc":9417,"EEAG":9418,"EEEDE":9419,"EEEDB":9420,"AFFEE":9421,"AFGABG":9422,"AFdBAFDF":9423,"FGAfed":9424,"FGAdcd":9425,"FGAGED":9426,"FGABde":9427,"FGAddc":9428,"FGABcdeg":9429,"faedB":9430,"fagedg":9431,"dcE":9432,"dcF":9433,"dcf":9434,"AGBc":9435,"AGDE":9436,"AGBAGE":9437,"AGBdg":9438,"defc":9439,"defdedBc":9440,"gfedBeef":9441,"eaea":9442,"eagba":9443,"eagea":9444,"eaagfdd":9445,"GFEDEG":9446,"GFECC":9447,"egce":9448,"egefed":9449,"egAe":9450,"egdeg":9451,"GBefg":9452,"GBGABc":9453,"GBedcA":9454,"GBEGG":9455,"fgefga":9456,"fgdedB":9457,"eega":9458,"eeedc":9459,"eeAe":9460,"dBAc":9461,"dBAABc":9462,"dBAcBAGE":9463,"dBAdBAGF":9464,"ABcABcd":9465,"ABcefe":9466,"ABcABcdB":9467,"ABADED":9468,"ABAFGFEF":9469,"dedge":9470,"dedce":9471,"dedcABc":9472,"ĠAde":9473,"DFABc":9474,"DFABd":9475,"DFAGF":9476,"DFAFB":9477,"GABGABce":9478,"ecAFEF":9479,"ecAABGFED":9480,"GBdeag":9481,"GBdBcAFA":9482,"dgBA":9483,"dgbga":9484,"agged":9485,"Acedc":9486,"AcBcA":9487,"AcedBG":9488,"dfgfe":9489,"dfgagf":9490,"dBGdB":9491,"dBGGFD":9492,"dAGFE":9493,"eAFA":9494,"eAge":9495,"eAaA":9496,"dcdedB":9497,"dcdafd":9498,"dcdABcde":9499,"dcdBAGFA":9500,"dcdfecAc":9501,"dcABcd":9502,"dcAcBGG":9503,"BeBA":9504,"Begf":9505,"edccde":9506,"EFGEC":9507,"EFFAFF":9508,"DGBB":9509,"DGBADFA":9510,"EGcBA":9511,"EGDC":9512,"EGBGBd":9513,"BABDGB":9514,"aabg":9515,"aaae":9516,"aaafa":9517,"aada":9518,"BAFDEF":9519,"BAFBBA":9520,"gfgbg":9521,"gfgAce":9522,"gfgbgd":9523,"AGEDD":9524,"AGECD":9525,"AGEAdc":9526,"AGEDCDEG":9527,"ABddB":9528,"ABdefaaf":9529,",|[":9530,"ggef":9531,"ggdg":9532,"EAcAA":9533,"BGAc":9534,"ffcA":9535,"ffgfe":9536,"ffecB":9537,"efedce":9538,"efedBAGA":9539,"efedBdef":9540,"efedcdcB":9541,"afdBcd":9542,"afdcde":9543,"cdeG":9544,"cdeAB":9545,"dcBAe":9546,"dcBABA":9547,"fgaecd":9548,"fgagfedc":9549,"AddedB":9550,"AddBAF":9551,"AddedcAG":9552,"BGGGFG":9553,"agfee":9554,"ABcdAG":9555,"ABcdefd":9556,"ABcdefec":9557,"ABcdeAce":9558,"AFDDF":9559,"AFDFEDB":9560,"DFFA":9561,"DFGF":9562,"DFCF":9563,"efdcB":9564,"cAAedc":9565,"GEDDEF":9566,"eaagab":9567,"dGBGB":9568,"dGBAAA":9569,"dGgGfGeG":9570,"bagec":9571,"bagbagef":9572,"BEFGA":9573,"BAGAGED":9574,"cBcege":9575,"GEEd":9576,"GEEBAG":9577,"GEEDEDB":9578,"BAFAdAFA":9579,"gedBed":9580,"bgagab":9581,"bgagedBd":9582,"eceaf":9583,"eceAc":9584,"EAAcee":9585,"EAADAA":9586,"EAABAGED":9587,"fefA":9588,"BGEcGE":9589,"BGBedB":9590,"fafefe":9591,"fafafa":9592,"edecd":9593,"BEEEDE":9594,"bafea":9595,"BcBABG":9596,"BcBAce":9597,"BcBABAG":9598,"dBdBA":9599,"dBdAF":9600,"dBdege":9601,"AcegfddB":9602,"AFECA":9603,"AFEFDE":9604,"Bcdegf":9605,"BABdd":9606,"BABdedef":9607,"GABdeBd":9608,"GABddBde":9609,"DEGBAGAB":9610,"edBdg":9611,"edBdefg":9612,"EFGABAFA":9613,"gefa":9614,"gefddcBA":9615,"CDFF":9616,"fecef":9617,"fecBBA":9618,"edcded":9619,"GBABcd":9620,"GBAEE":9621,"fgfecB":9622,"fgffcA":9623,"GABcAd":9624,"DEFAFA":9625,"DEFABcde":9626,"AAAEA":9627,"EFABd":9628,"EFAdB":9629,"edcAE":9630,"edcABG":9631,"agedcdef":9632,"FAFFED":9633,"FAFdAF":9634,"egfa":9635,"egfdfa":9636,"egfdde":9637,"egfdedBc":9638,"egfagedg":9639,"gBBAB":9640,"dfagfed":9641,"fBBdBB":9642,"fBBAFEFA":9643,"fBBAFEFB":9644,"gabgeaaf":9645,"DGGGFD":9646,"fdda":9647,"fddfd":9648,"fddged":9649,"fddfg":9650,"FAdAB":9651,"FAdAF":9652,"FAdGBd":9653,"FAdGBe":9654,"BAGFGAB":9655,"BAGFGFED":9656,"BAGEGB":9657,"BAGEDG":9658,"BcBBce":9659,"gecef":9660,"edcBAGF":9661,"gdBGAGEG":9662,"ABGGA":9663,"ABGEF":9664,"ceccBA":9665,"DEFGABAG":9666,"cBcdcBAG":9667,"cBcdefga":9668,"cBcdedef":9669,"cBcdedd":9670,"dBcBAF":9671,"dBcABAFE":9672,"GGGGAB":9673,"GGGDG":9674,"GGGBcdB":9675,"AeAdBG":9676,"FDEA":9677,"BBBBd":9678,"BBBfB":9679,"BBBFBe":9680,"dfecAc":9681,"BABcef":9682,"defgage":9683,"defgadfa":9684,"defgadfd":9685,"dAFDEFE":9686,"edBGF":9687,"gfgagede":9688,"agafed":9689,"agafecAc":9690,"cAFABc":9691,"CDEDEF":9692,"AFFFED":9693,"AFFFAF":9694,"AFFFEFDE":9695,"dfdege":9696,"ADDFED":9697,"ADDDADBD":9698,"DGBg":9699,"GABcdBG":9700,"GABcdefd":9701,"GABcdgfa":9702,"Adfdfd":9703,"Adfdedcd":9704,"Adfdgdfd":9705,"FEEd":9706,"dBGABAG":9707,"cBGd":9708,"cBGBc":9709,"fdBBdc":9710,"FDFAG":9711,"FDFAAB":9712,"Bcdefgfe":9713,"BcdefBAB":9714,"AaAa":9715,"gfefdd":9716,"gfefgfed":9717,"fgfededB":9718,"fgfedBBA":9719,"bagfBB":9720,"dAAf":9721,"dAAAd":9722,"dAAdef":9723,"eBBfBB":9724,"gagbag":9725,"DGBdgdBd":9726,"ADFAGABc":9727,"bgecd":9728,"bgeeg":9729,"FDFBd":9730,"FDFGFE":9731,"dAFAdefd":9732,"fdcAdc":9733,"fdcAAGGA":9734,"eccfdd":9735,"fbbf":9736,"DDDFD":9737,"fBBa":9738,"fBBgBB":9739,"eGdB":9740,"gagfgfed":9741,"gagfeg":9742,"ABAAef":9743,"gdBGFG":9744,"efecf":9745,"efecBc":9746,"EGBEc":9747,"EFEB":9748,"EFEEDE":9749,"agfedcB":9750,"FAcfe":9751,"FAcFAc":9752,"cdeded":9753,"cdedAG":9754,"ABdefagf":9755,"GEDEGB":9756,"GEDEGAB":9757,"fAAefg":9758,"Bcdefgefe":9759,"Bcdefgece":9760,"gdBdG":9761,"BGEEB":9762,"BGEEFA":9763,"BBAAB":9764,"fdecdAFA":9765,"cEEBEE":9766,"bcac":9767,"eAfAecBc":9768,"eAfAgece":9769,"dBAFEAFE":9770,"FdFAF":9771,"FdEc":9772,"degdg":9773,"FADc":9774,"Bdefgedc":9775,"GBGF":9776,"GBGc":9777,"fdddBA":9778,"AFDDef":9779,"FGFEDEFG":9780,"beeaee":9781,"GABGAEE":9782,"afaea":9783,"dEc":9784,"Adfagefa":9785,"FGFDC":9786,"BDc":9787,"BDDE":9788,"egedg":9789,"BfBd":9790,"decagaf":9791,"cBcAE":9792,"cBcAFE":9793,"BAGFEFGE":9794,"AddcdcAB":9795,"AGEGDE":9796,"gbagfedc":9797,"EDCEA":9798,"dGBdeGBd":9799,"AdcdBAFA":9800,"feeedB":9801,"dcdefedc":9802,"gddc":9803,"fedcBAGF":9804,"decAAB":9805,"cABGBG":9806,"dBBAAG":9807,"FGBeg":9808,"BFABde":9809,"afgefedc":9810,"EFEDF":9811,"cAGEEDDB":9812,"gfedBBAA":9813,"abafef":9814,"BGFdAF":9815,"EGGGED":9816,"FBBFBB":9817,"AGFGAGFG":9818,"fgafcA":9819,"fgedce":9820,"dBGBAEE":9821,"BDDBBAGA":9822,"AFEDF":9823,"AABAe":9824,"efgedBGA":9825,"EAAGABAG":9826,"BGEGDG":9827,"BGEGBGEG":9828,"eagece":9829,"dBAFABdf":9830,"fdefdf":9831,"GBeFAd":9832,"FEFGG":9833,"FGAcBGG":9834,"BAAGGF":9835,"bagagfg":9836,"egdgedBd":9837,"AFABBABc":9838,"fefgafed":9839,"BcdBGc":9840,"edgde":9841,"edgdeg":9842,"gabgabge":9843,"BggBgg":9844,"DFAFGFED":9845,"fedcAFDE":9846,"GBAFGEED":9847,"EGFEB":9848,"EGFEFG":9849,"egdBAGAB":9850,"gfddg":9851,"fAdfg":9852,"FBdBc":9853,"cAceagec":9854,"eaagegg":9855,"afdfeBBA":9856,"CEEG":9857,"dedcBGAF":9858,"DEFDEA":9859,"dcBGGF":9860,"FEEEFG":9861,"fgafdAFA":9862,"BAAGAcBA":9863,"BAAGAGED":9864,"BABcAFG":9865,"GBAGFDDG":9866,"gbagfddf":9867,"dBgBBAA":9868,"BddeBA":9869,"eAdAcA":9870,"BdcBAcBA":9871,"fdAdfg":9872,"EDFAAB":9873,"EGABed":9874,"AdcAGcAG":9875,"fdecAdd":9876,"DBBBAG":9877,"AFDFEFDF":9878,"dgedcB":9879,"cAFDG":9880,"accecc":9881,"GEFDDF":9882,"dAddAd":9883,"dggfgedg":9884,"cABAcB":9885,"gdBAGA":9886,"cAAGEAAB":9887,"gBdgfAdf":9888,"BABcBAA":9889,"cdefgecA":9890,"fdAdfagf":9891,"cdeaec":9892,"gedBcAAc":9893,"eBdBAc":9894,"BGDGBc":9895,"bgegbgeg":9896,"BGcGBGG":9897,"faafdcde":9898,"BddBABGA":9899,"cAceagfe":9900,"cAceaece":9901,"BGABcedc":9902,"GdBdGdBd":9903,"gaggec":9904,"FBBBFBBB":9905,"ecdBcAAB":9906,"BcdcABGG":9907,"deAede":9908,"ecAcecdc":9909,"dBAdBE":9910,"afegfddB":9911,"fagefedc":9912,"AaAgAa":9913,"abfgeg":9914,"ceafecBA":9915,"EGABcBAG":9916,"ABcefc":9917,"fdgeafed":9918,"FAdAFDDF":9919,"fbbaba":9920,"dDcDBD":9921,"aegdec":9922,"ecBAFAAF":9923,"AcecdBGB":9924,"dBAGEGGA":9925,"dBAGEGGE":9926,"eAcedGBd":9927,"EDCDEDD":9928,"acgcfc":9929,"GgfgedBG":9930,"ecgcedcd":9931,"fAdfeAde":9932,"BDGBdgfg":9933,"GECDEDD":9934,"GBdBceag":9935,"BeedBddA":9936,"ABeeBee":9937,"cefecefe":9938,"fAAfAAfA":9939,"CGECB":9940,"adgdfd":9941,"BcABGAFG":9942,"gBaBbBAB":9943,"EBAGAEE":9944,"GBFBEBDB":9945,"fcacfc":9946,"BdGBAcFA":9947,"BdfdBdfd":9948,"abgafgef":9949,"BfdBAecA":9950,"'!":9951,"'.":9952,".^":9953,"11":9954,">:||:":9955,"AedB":9956,"Aede":9957,"Aage":9958,"AcAB":9959,"AdBGA":9960,"AeAce":9961,"Bga":9962,"Bbag":9963,"BBAGE":9964,"BBde":9965,"BBce":9966,"BbB":9967,"BDFBd":9968,"CAA":9969,"CcBc":9970,"CGEG":9971,"CGAG":9972,"CCDE":9973,"DdcA":9974,"DBAA":9975,"DGEC":9976,"EBc":9977,"EBAB":9978,"EGEDE":9979,"EDFAF":9980,"FFAF":9981,"FcBG":9982,"FBdcB":9983,"FCFA":9984,"Gged":9985,"GDC":9986,"Gcdef":9987,"GgdB":9988,"GdGG":9989,"GBGEFG":9990,"GgfedcBA":9991,"GDADBD":9992,"Je":9993,"Pe":9994,"acd":9995,"aAd":9996,"adc":9997,"aafg":9998,"aAcBA":9999,"aAcef":10000,"bgedB":10001,"bfbf":10002,"cBdB":10003,"cGGG":10004,"cEGc":10005,"ccAce":10006,"cGEEFG":10007,"dafa":10008,"dABAF":10009,"dFAdc":10010,"daca":10011,"eBcA":10012,"eecB":10013,"egaba":10014,"ecdecd":10015,"fFF":10016,"fgedc":10017,"fbagfe":10018,"fefede":10019,"gBG":10020,"gBcA":10021,"|âĢľ":10022,"ĠFD":10023,"Ġdef":10024,"ĠdA":10025,"ĠBcdef":10026,"ĠABAA":10027,"ĠFAA":10028,"ĠABGA":10029,"BAfec":10030,"BABAGF":10031,"edgfe":10032,"eddBG":10033,"edeAA":10034,"eddF":10035,"edefgfge":10036,"Bcegf":10037,"Bcefec":10038,"effd":10039,"effa":10040,"efgfg":10041,"efAe":10042,"efafec":10043,"||!":10044,"GAcc":10045,"GAFF":10046,"GAcG":10047,"GAFDF":10048,"GAcdec":10049,"GAGFGE":10050,"GABcAFA":10051,"cABAF":10052,"cAcc":10053,"cABAFE":10054,"cAceg":10055,"cAAGED":10056,"BdAA":10057,"BdgfdB":10058,"BdAFDEFD":10059,"FAdcd":10060,"FAABd":10061,"FABdB":10062,"FAcBAG":10063,"FABAFD":10064,"FABAFE":10065,"FAGFD":10066,"FAceg":10067,"FAFAB":10068,"FABdf":10069,"FAGFEF":10070,"FAdcBAGF":10071,"FAcEAc":10072,"cdBAB":10073,"cdedBA":10074,"cdBABc":10075,"cddAdd":10076,"BGGAB":10077,"BGBE":10078,"BGFEDB":10079,"GFFEE":10080,"GEAA":10081,"GEcEE":10082,"GEFEDB":10083,"fdBg":10084,"fdefga":10085,"fdefgf":10086,"fdeBB":10087,"fdaecA":10088,"fddcAF":10089,"fdceAc":10090,"fddfec":10091,"fdafda":10092,"DEGF":10093,"DEGFGA":10094,"DEFEDF":10095,"DEECEB":10096,"AAAFD":10097,"AABAGA":10098,"AAcAeAcA":10099,"AAEAcBA":10100,"gafed":10101,"gaea":10102,"gaaa":10103,"gafga":10104,"gafdd":10105,"BcdE":10106,"Bcddcd":10107,"Bcdgb":10108,"BcdBAFD":10109,"BcdBcdef":10110,"BcdBAGFE":10111,"BcdBABcA":10112,"BcdcABAFA":10113,"eccBA":10114,"ecedB":10115,"ecBGE":10116,"eccAB":10117,"ecafe":10118,"ecfedB":10119,"ececBA":10120,"ecgecg":10121,"eccGce":10122,"FEFB":10123,"cBAcd":10124,"cBAdB":10125,"cBABAFA":10126,"cBAcBAG":10127,"cBAAAA":10128,"cBAFAF":10129,"cBAGFD":10130,"cBAFd":10131,"cBAEAB":10132,"cBABGGF":10133,"gegfed":10134,"geedBB":10135,"geeaee":10136,"gegfdA":10137,"FDGA":10138,"FDCF":10139,"FDFECE":10140,"dBeAA":10141,"dBBAFE":10142,"dBfdB":10143,"dBedcAA":10144,"afafd":10145,"afae":10146,"afgdB":10147,"afgfef":10148,"afagec":10149,"ddee":10150,"ddBGB":10151,"ddedcBA":10152,"ddcAB":10153,"dddcAG":10154,"dddedBA":10155,"cBEED":10156,"/|>":10157,"gedec":10158,"gedBB":10159,"gedcBGGA":10160,"ABBAGA":10161,"ABBAGF":10162,"ABeed":10163,"ABBAd":10164,"fedb":10165,"fedAB":10166,"fedABd":10167,"fedfga":10168,"fedadfd":10169,"deABc":10170,"deedcA":10171,"deedeg":10172,"FGd":10173,"FGGG":10174,":||:.":10175,"Adefd":10176,"AdAFE":10177,"AdcAB":10178,"ceedc":10179,"ceBGA":10180,"ceeaec":10181,"GGf":10182,"GGBA":10183,"GGGF":10184,"GGGAB":10185,"GGBdB":10186,"badd":10187,"baab":10188,"babage":10189,"fegf":10190,"feecA":10191,"feefa":10192,"BAGdcB":10193,"BAGBAGEF":10194,"BBgf":10195,"BBBAF":10196,"BBBABd":10197,"BBfB":10198,"DDDC":10199,"efgABcd":10200,"EEGB":10201,"EEDEF":10202,"AFFGAB":10203,"FGAGFE":10204,"FGAdA":10205,"FGAcde":10206,"FGAAFA":10207,"FGAAGF":10208,"FGAFGABc":10209,"FGAAFd":10210,"FGAABGFED":10211,"FGAEAD":10212,"faA":10213,"faBe":10214,"fagfd":10215,"fagfef":10216,"faafec":10217,"dcedcA":10218,"dccBB":10219,"AGBB":10220,"AGBGAG":10221,"AGcGA":10222,"defcA":10223,"defee":10224,"defefd":10225,"defgedB":10226,"defefa":10227,"defdedcA":10228,"defddcBA":10229,"gfededc":10230,"gfedcAG":10231,"gfedBABd":10232,"eaagf":10233,"eaAcB":10234,"eabage":10235,"eaafged":10236,"GFEFGABG":10237,"egdedB":10238,"eggage":10239,"eggfgage":10240,"GBeg":10241,"GBedBA":10242,"eeefed":10243,"gfege":10244,"gfeedc":10245,"gfeAcA":10246,"gfegfede":10247,"ABcg":10248,"ABcefece":10249,"ABABde":10250,"ABAFAA":10251,"ABAGEF":10252,"dedfd":10253,"dedGBd":10254,"dedABG":10255,"dedcAd":10256,"dedBABde":10257,"dedcBcBA":10258,"ĠAce":10259,"DFABcd":10260,"DFAABc":10261,"DFADGB":10262,"DFABAFAB":10263,"DFAFGBAG":10264,"GABBcd":10265,"ecAdcB":10266,"ecABce":10267,"GBdef":10268,"dggfga":10269,"dggagfde":10270,"Acefg":10271,"Accc":10272,"dfcd":10273,"dffafd":10274,"dfAdfAdf":10275,"edBedBAF":10276,"dBGc":10277,"dBGBc":10278,"dBGgdB":10279,"dBGBABcd":10280,"dAFED":10281,"dABdA":10282,"eAfe":10283,"eAaAgAfA":10284,"dcdABG":10285,"ĠEAB":10286,"dcAE":10287,"dcAGFGA":10288,"dcAAAG":10289,"edcg":10290,"edcaecd":10291,"GFGdBG":10292,"GFGBAF":10293,"EFc":10294,"EFFED":10295,"EFFEFGFE":10296,"DGFAG":10297,"BABBcd":10298,"BABEFE":10299,"aaef":10300,"aaaba":10301,"aabagfe":10302,"gfgded":10303,"DBBc":10304,"AGEB":10305,"AGEEG":10306,"AGEDED":10307,"AGEJG":10308,"ABdcBA":10309,"ABdFED":10310,"ABdefedA":10311,"ABdfefde":10312,"ccE":10313,"cccBA":10314,"ccce":10315,"cccG":10316,"cccBcA":10317,"EAGF":10318,"EAcB":10319,"EAEE":10320,"EAcAFAcA":10321,"BGAGEDB":10322,"FFFD":10323,"FFFAF":10324,"efedcBAG":10325,"afddB":10326,"afdAFA":10327,"afddAF":10328,"afddfd":10329,"afdgbg":10330,"cdeefe":10331,"cdecdef":10332,"cdecdefg":10333,"cdecdB":10334,"cdegaged":10335,"AFABe":10336,"AFAcde":10337,"AFAdcB":10338,"DEFDEFA":10339,"fgagedB":10340,"Addfe":10341,"Adddfa":10342,"AdddedcAG":10343,"AddedcAB":10344,"AddBcAGc":10345,"BGGBA":10346,"agfgfed":10347,"agfgag":10348,"agfefecA":10349,"gda":10350,"ABcdedef":10351,"AFDC":10352,"AFDDE":10353,"AFDcBA":10354,"eAAABA":10355,"eAAAa":10356,"eAAecc":10357,"eAAGAA":10358,"DFBc":10359,"DFBcd":10360,"DFBcdB":10361,"DFFDF":10362,"efdge":10363,"cAAcA":10364,"eaagag":10365,"eaagee":10366,"efeABc":10367,"efeece":10368,"efeefec":10369,"AGAcd":10370,"AGAABc":10371,"AGABAGED":10372,"edBABcde":10373,"edBAFEE":10374,"edBABdef":10375,"GFGABcdB":10376,"GFGABAGF":10377,"bagc":10378,"BEcEdE":10379,"bgbg":10380,"bgdBGBdg":10381,"BAGABAG":10382,"BAGABAGA":10383,"BAGABcdB":10384,"BAGABdcB":10385,"BAGABcdf":10386,"CEc":10387,"CEDE":10388,"CEGED":10389,"CEFEC":10390,"cBcDFA":10391,"cBccBc":10392,"cBcedBGB":10393,"DADF":10394,"GEEGEE":10395,"BAFAAA":10396,"BAFAdf":10397,"bgafed":10398,"ecegf":10399,"EAAFA":10400,"EAAABA":10401,"EAABcdef":10402,"dcBEGB":10403,"BGEFGABc":10404,"DCCD":10405,"AGFd":10406,"AGFFED":10407,"AGFDEDD":10408,"BGBed":10409,"fafB":10410,"edegag":10411,"BdBBd":10412,"BEEA":10413,"BEEc":10414,"BEEd":10415,"BEEDB":10416,"bafefa":10417,"ecdcA":10418,"ecdec":10419,"ecdcAB":10420,"BcBAFD":10421,"BcBAGFE":10422,"dBddef":10423,"Aceefg":10424,"efgeaged":10425,"efgeafge":10426,"Bcdege":10427,"BABdge":10428,"BABdefge":10429,"BABdedeg":10430,"BABdBGABc":10431,"GABdefge":10432,"GABdgdBd":10433,"GABdeBdB":10434,"GABdegge":10435,"edBdefge":10436,"EFGAFDD":10437,"EFGABeed":10438,"EFGABcdeg":10439,"gefedB":10440,"gefdedB":10441,"gefdedBG":10442,"cAFGFE":10443,"cAFGFD":10444,"FBBcdcBA":10445,"feccBB":10446,"dfedcAAd":10447,"edcdegg":10448,"abgd":10449,"GBAFGABd":10450,"aegedB":10451,"fgfga":10452,"fgfdg":10453,"fgfff":10454,"fgfece":10455,"GABced":10456,"GABcGE":10457,"FEFd":10458,"FEFGF":10459,"DEFAE":10460,"DEFAG":10461,"DEFAdB":10462,"DEFABEE":10463,"DEFAdfec":10464,"EFAcd":10465,"ageagea":10466,"edcAGB":10467,"eBgf":10468,"eBegb":10469,"agedeAA":10470,"BGBdf":10471,"BGBdgfdc":10472,"EDEFDB":10473,"egfdedB":10474,"gBBA":10475,"gBga":10476,"gbc":10477,"gbec":10478,"gbgeg":10479,"gbegb":10480,"dBBFBB":10481,"fBfd":10482,"fBFB":10483,"gabged":10484,"gabgg":10485,"gabgeg":10486,"fdfcf":10487,"Beeefa":10488,"cAcec":10489,"fddb":10490,"AGFGD":10491,"abagfg":10492,"abaafe":10493,"abagfefg":10494,"abafdefd":10495,"cdefged":10496,"BAGFDGGA":10497,"BAGEGE":10498,"BcBBAB":10499,"gecefg":10500,"edcBABc":10501,"gdBBAA":10502,"DEDFEF":10503,"FDDe":10504,"ABGEED":10505,"cecBAB":10506,"efgfaf":10507,"efgfagedc":10508,"DEFGAdd":10509,"DEFGAddB":10510,"dBce":10511,"GGGBG":10512,"GGGBAB":10513,"gedBAAAB":10514,"dFFAFE":10515,"GAGGAc":10516,"FGEDB":10517,"FGEFDE":10518,"FDEFE":10519,"cAGEADD":10520,"BAFDAF":10521,"BAFDFAB":10522,"BBBa":10523,"ecBBAB":10524,"cABBc":10525,"edBGD":10526,"gfgagfde":10527,"agabagef":10528,"dgggag":10529,"cAAAed":10530,"cGcc":10531,"cGcG":10532,"cGBGFG":10533,"CDEGAB":10534,"CDECD":10535,"CDEDCB":10536,"AFFBGG":10537,"dfdAFA":10538,"dfdcac":10539,"ADDF":10540,"ADDCD":10541,"DEGAc":10542,"gfdAd":10543,"gfdAG":10544,"GFDDA":10545,"cedfe":10546,"cBGc":10547,"cBGGF":10548,"cBGGE":10549,"Aaef":10550,"GDFE":10551,"gfefedB":10552,"dAAcAA":10553,"dAABAA":10554,"DEFGc":10555,"cdefgefg":10556,"cdefgbag":10557,"BddGBd":10558,"ADFAB":10559,"ADFABAGF":10560,"ADFAdefa":10561,"AGFEDE":10562,"AGFEDEFG":10563,"AGFEDCB":10564,"bgeB":10565,"bgea":10566,"BGdGe":10567,"BGdGBGdG":10568,"fccA":10569,"BFFA":10570,"BFdF":10571,"BFdFBF":10572,"ECED":10573,"ECCB":10574,"GABGF":10575,"GABGd":10576,"GABGGF":10577,"fgeaf":10578,"AcBAGEDG":10579,"fBBe":10580,"fBBfB":10581,"Gccd":10582,"gdBGgf":10583,"gdBGDG":10584,"gdBGBg":10585,"gdBGDGBd":10586,"cAFGB":10587,"eAcAec":10588,"EGBBAG":10589,"EFEC":10590,"EFEFA":10591,"BABcdcB":10592,"BABcdfed":10593,"cFFEF":10594,"AcAGED":10595,"AcABGB":10596,"fafdefa":10597,"fafdfafd":10598,"fAAgfe":10599,"fAAfdA":10600,"Bcdefgbag":10601,"BGEEAG":10602,"BGEEDB":10603,"fdcdAG":10604,"fdcdABcd":10605,"cABGAFGE":10606,"fdecdfed":10607,"eeeed":10608,"geeef":10609,"cEEGED":10610,"FADf":10611,"DGBGBG":10612,"Beedfded":10613,"BeedceAc":10614,"DEDDFG":10615,"AFDDFG":10616,"efdBBd":10617,"cdecBGEG":10618,"GABGAGFD":10619,"AFDEFEEF":10620,"afaafa":10621,"edefgece":10622,"bdadgd":10623,"ABGAGF":10624,"dBcABGFG":10625,"dfafed":10626,"cfcec":10627,"cffecA":10628,"BDDED":10629,"GAGGBc":10630,"AAAAc":10631,"AAAAce":10632,"egede":10633,"decBAB":10634,"dcBcAB":10635,"GBAGBA":10636,"gafged":10637,"addfed":10638,"addedcAB":10639,"aAbA":10640,"GEAEB":10641,"dBGGDGG":10642,"eaagefga":10643,"dDFD":10644,"bfafe":10645,"bfafed":10646,"dcdefdcA":10647,"dcdefefa":10648,"gedgBGdB":10649,"fagfec":10650,"afffed":10651,"dBGBedcB":10652,"cABGGF":10653,"cABGEG":10654,"BdBGBG":10655,"dBBAAB":10656,"GFGEB":10657,"fdAecA":10658,"faafee":10659,"BAGBAefg":10660,"cefecA":10661,"ffeffef":10662,"AcdeA":10663,"EGGc":10664,"bageeg":10665,"DEFDAD":10666,"AaaA":10667,"fgedd":10668,"agefgedc":10669,"gggefg":10670,"EGEDB":10671,"efgedBB":10672,"FGAFDEFA":10673,"AEEABc":10674,"cedcBG":10675,"efedBedB":10676,"cecAce":10677,"ADFDG":10678,"BdAFDEFA":10679,"BdAFGEED":10680,"ecBcABcd":10681,"fdefde":10682,"aBa":10683,"aBfB":10684,"eaafgfef":10685,"cAFAGDEF":10686,"eefde":10687,"dAdefg":10688,"EAcAce":10689,"Bdedg":10690,"DEGABe":10691,"ABcBAE":10692,"fedfecAc":10693,"fedfeBBA":10694,"fedcBagf":10695,"fffece":10696,"BggAff":10697,"Bcdegge":10698,"CGC":10699,"DFAFGEE":10700,"fedcdAFA":10701,"dBAFDFAF":10702,"gbgef":10703,"AGFDDA":10704,"GEBEcAFA":10705,"GEBEcEBE":10706,"fefgdB":10707,"defdegfe":10708,"egdBABGA":10709,"gabgef":10710,"AFGEDEFG":10711,"fdgece":10712,"ABAGFDFA":10713,"EEDCE":10714,"cAceae":10715,"FEDFAdB":10716,"eaageaa":10717,"eAAAeAfA":10718,"FDCDB":10719,"dbdcac":10720,"decdBcAB":10721,"GFGBD":10722,"GBEGBd":10723,"egfedA":10724,"egfedBBA":10725,"DDDDA":10726,"cBdcBAcB":10727,"fcAfcA":10728,"gdcBcA":10729,"cAeAcAA":10730,"cAeAcdef":10731,"gfgedBAG":10732,"FGAFGBAG":10733,"GFGABdge":10734,"dgdad":10735,"bgafgdBd":10736,"GAcdedd":10737,"agegge":10738,"BAcefe":10739,"fadaf":10740,"AEAce":10741,"ADFDEFGB":10742,"FDEFGE":10743,"bagagfgfe":10744,"EAABcgcd":10745,"cfffec":10746,"ebeae":10747,"cBABcdea":10748,"BEGBc":10749,"BcdAFFEE":10750,"FAAFAdB":10751,"CFACFA":10752,"ecGce":10753,"FAAFGEE":10754,"fecdBB":10755,"FAdefefg":10756,"GddGdd":10757,"cAFDBA":10758,"FAGFDC":10759,"dggfgfed":10760,"BcdBABAG":10761,"cdeAcd":10762,"AGFGEFGA":10763,"FBFcF":10764,"defdAFDF":10765,"dcdedBAF":10766,"dcdedAFA":10767,"cBBBa":10768,"fegce":10769,"cFAFcFAB":10770,"gfgabee":10771,"GEEGBG":10772,"gafgdB":10773,"dGeGdB":10774,"faecdBBA":10775,"egfdeBB":10776,"DGFGBd":10777,"DCDEC":10778,"gedBcAAB":10779,"ceeeAe":10780,"gedBcBcd":10781,"DBAAGE":10782,"BdgdBGGB":10783,"Bdcedfeg":10784,"Eeeefg":10785,"defedcBd":10786,"GFDCF":10787,"FABAdB":10788,"fgefdefg":10789,"dABGFDD":10790,"bgagegge":10791,"bgagegde":10792,"DEDEGF":10793,"fageef":10794,"ecAcecAc":10795,"dfedcAAg":10796,"afegfdde":10797,"cABGEGG":10798,"bfdb":10799,"afegfddA":10800,"FEDADFE":10801,"EGceDFBd":10802,"EBBAcB":10803,"AFGEFDDg":10804,"GFGBdc":10805,"BdAcBGG":10806,"GFEDCEA":10807,"GBDBGB":10808,"AGEGAcBA":10809,"ABEEBEE":10810,"cfecBc":10811,"ecBAFAA":10812,"eggagedg":10813,"ADAGFDD":10814,"ĠDFAdcd":10815,"dffefgfe":10816,"GBEGBAGF":10817,"fdgfedBc":10818,"gBfBed":10819,"gfefBBfga":10820,"ecefcB":10821,"dBBAFAdB":10822,"affedecd":10823,"DDDFAGF":10824,"aeceaecA":10825,"gfgdecdB":10826,"FDGDFDD":10827,"cegecege":10828,"dfgfedBc":10829,"BeGeBe":10830,"EDEBBAFD":10831,"ABAgAf":10832,"fafecfec":10833,"egbegbeg":10834,"cfefce":10835,"eggedfed":10836,"dgfgecAF":10837,"BddGBB":10838,"ADcDBDAD":10839,"cgcg":10840,"fddcABcA":10841,"fgafgabg":10842,"GDBDGABc":10843,"ECFCECC":10844,"EAABcABd":10845,"EedcBAGF":10846,"fgaaafg":10847,"fBaBfB":10848,"DGcBEF":10849,"dFBFA":10850,"BGFDECC":10851,"FcBFAFF":10852,"fddafdaf":10853,"faafefAB":10854,"AccdcAFG":10855,"BGAGBGAG":10856,"DFEGFAGB":10857,"dfffdfff":10858,"cFFcdGGd":10859,"BAFAdADE":10860,"GFFEEBAE":10861,"dccBBfeB":10862,"eaAcBfed":10863,"![|:":10864,"#|":10865,"'=":10866,"':|":10867,",'":10868,",-|":10869,".|":10870,"/!":10871,"/>^":10872,"<<":10873,"ADB":10874,"Afaf":10875,"ADEG":10876,"AedcBA":10877,"AafdA":10878,"AcAGEA":10879,"AacaAa":10880,"Befga":10881,"BFEF":10882,"BBABcd":10883,"Bbf":10884,"Bfff":10885,"Bbagfe":10886,"BBGBA":10887,"CBA":10888,"CFAcf":10889,"DcBA":10890,"DcB":10891,"DAc":10892,"DcBAG":10893,"DGAc":10894,"DFDB":10895,"DddB":10896,"DCEAc":10897,"EGABG":10898,"EABAGE":10899,"EBAFDF":10900,"EBEB":10901,"EcEBE":10902,"ETB":10903,"Fa":10904,"FGEE":10905,"FDEG":10906,"FDEFGAB":10907,"Ggfed":10908,"Gmin":10909,"GdcA":10910,"GGFGA":10911,"GGABd":10912,"GcG":10913,"GBcBAG":10914,"GDEDB":10915,"GBABde":10916,"GdGeGdG":10917,"PD":10918,"aecc":10919,"aAdf":10920,"befga":10921,"bbaa":10922,"bdgba":10923,"cDFA":10924,"cafd":10925,"cfga":10926,"cfc":10927,"cafe":10928,"cBdef":10929,"dgedc":10930,"dagfed":10931,"dAGFA":10932,"dGAc":10933,"dcecA":10934,"dgedBGA":10935,"egab":10936,"eedefg":10937,"eBAGFE":10938,"eBdG":10939,"eedBdBA":10940,"eTf":10941,"fce":10942,"fAF":10943,"fcG":10944,"fced":10945,"fBdef":10946,"fbafe":10947,"fBcdcB":10948,"ffgef":10949,"ffggf":10950,"gGA":10951,"gdf":10952,"il":10953,"|*":10954,"|+":10955,"Ġ.":10956,"Ġ:":10957,"Ġec":10958,"Ġgfed":10959,"ĠBe":10960,"ĠGABc":10961,"Ġfdd":10962,"ĠCB":10963,"ĠEEE":10964,"ĠBcdBG":10965,"ĠFAAFAdAFD":10966,"BAdf":10967,"BAAFA":10968,"BAFGAB":10969,"BABGEE":10970,"BAEGE":10971,"BAdBAFEF":10972,"eddA":10973,"edBdB":10974,"edfec":10975,"eddcAG":10976,"edefedBA":10977,"edfedBAF":10978,"edfdedfd":10979,"BcBe":10980,"BcGEG":10981,"BcBg":10982,"BcEGA":10983,"BcBAGABc":10984,"BcAdfe":10985,"BcFDGGA":10986,"efefa":10987,"efBBA":10988,"efcf":10989,"effedefg":10990,"GAcB":10991,"GAGABc":10992,"cAfed":10993,"cADFA":10994,"cAedcA":10995,"cAcdef":10996,"cAGFGE":10997,"cAFGAc":10998,"cAeedc":10999,"cAEDCEAc":11000,"Bdb":11001,"Bddef":11002,"BdeA":11003,"BddF":11004,"BdBABc":11005,"BdfdB":11006,"Bdfc":11007,"BdAFEFD":11008,"BdcBAGFE":11009,"gfb":11010,"gfefa":11011,"gfgedBA":11012,"gffge":11013,"gfdedB":11014,"FAded":11015,"FAABcd":11016,"FAdcB":11017,"FABGBd":11018,"FABABc":11019,"FAADFA":11020,"FADFAd":11021,"FAdcde":11022,"FAGEED":11023,"cdde":11024,"cdgfe":11025,"cdBe":11026,"cdAGF":11027,"cdBAFE":11028,"cdeaag":11029,"cdBdAd":11030,"cdccBc":11031,"cdedcBAc":11032,"BGDD":11033,"BGcBG":11034,"BGFDG":11035,"GFGEE":11036,"GEFED":11037,"GEEEE":11038,"GEFDB":11039,"|:=":11040,"fdABc":11041,"fdcAA":11042,"fdedcB":11043,"fddefga":11044,"fdgedc":11045,"fdBdBA":11046,"fdcBAF":11047,"fddABd":11048,"fddBdd":11049,"fdcBcAFA":11050,"fdAFAf":11051,"DEGBdg":11052,"AAaf":11053,"AAcB":11054,"AAAGE":11055,"AAABd":11056,"AAGBA":11057,"AAcea":11058,"gaef":11059,"gadc":11060,"gagdB":11061,"gagedBG":11062,"gaeaca":11063,"gafaea":11064,"Bcdfa":11065,"BcdABc":11066,"Bcdfec":11067,"BcdcAB":11068,"BcdcAFA":11069,"BcdBGF":11070,"BcdBcc":11071,"BcdfedBc":11072,"BcddGd":11073,"BcdBGFGB":11074,"ecGE":11075,"ecBAFE":11076,"ecgdBG":11077,"ecfecA":11078,"FEDED":11079,"FEFGAc":11080,"FEFEDC":11081,"FEDEFGAF":11082,"cBAAA":11083,"cBAGG":11084,"cBADFA":11085,"cBAFED":11086,"cBAEA":11087,"cBAAGF":11088,"cBAGFDD":11089,"cBABAFAFE":11090,"geAc":11091,"geafg":11092,"gecded":11093,"gebage":11094,"FDf":11095,"FDBA":11096,"FDGF":11097,"FDDFAd":11098,"FDDEDD":11099,"FDFGAG":11100,"dBD":11101,"dBef":11102,"dBFG":11103,"dBecA":11104,"dBBdBA":11105,"dBBAGABd":11106,"dBgdBgdB":11107,"dBBABdAF":11108,"dBfBgBfB":11109,"afbaf":11110,"afgee":11111,"affecBAF":11112,"ddcc":11113,"dddBc":11114,"cBa":11115,"cBGAG":11116,"gedBcd":11117,"gededc":11118,"gedBE":11119,"gedBde":11120,"gedBABGA":11121,"ABC":11122,"feddB":11123,"fedede":11124,"fedcdf":11125,"deaf":11126,"deefg":11127,"deBAB":11128,"deaag":11129,"FGGA":11130,"AdD":11131,"AdG":11132,"AdAB":11133,"AdBAF":11134,"Adfaf":11135,"Adfgaf":11136,"AdBdAd":11137,"AdBAFG":11138,"AdBdAB":11139,"AdPd":11140,"ceBd":11141,"cecAF":11142,"ceeaee":11143,"GGDG":11144,"babga":11145,"baaged":11146,"feBB":11147,"fegef":11148,"feac":11149,"feBcAF":11150,"BAGDG":11151,"BAGBAFDF":11152,"BBEB":11153,"BBBdcB":11154,"BBBGBdB":11155,"DDAB":11156,"DDDFAd":11157,"efgba":11158,"efgbaf":11159,"efggag":11160,"EEEFG":11161,"AFGAB":11162,"AFcAG":11163,"AFBAFE":11164,"AFdAF":11165,"AFCFAc":11166,"FGAe":11167,"FGAg":11168,"FGAGE":11169,"FGAABA":11170,"FGAdcA":11171,"FGABAB":11172,"FGAGFED":11173,"FGABABc":11174,"FGAdAF":11175,"FGAGD":11176,"FGAFDF":11177,"faee":11178,"faefec":11179,"fadefa":11180,"faefedBA":11181,"fabafa":11182,"fabfa":11183,"fadfadfa":11184,"faagfedB":11185,"faagfedf":11186,"dcec":11187,"dccAB":11188,"dcBdg":11189,"AGDG":11190,"AGBAF":11191,"AGcGE":11192,"deffe":11193,"deffef":11194,"defbaf":11195,"defedcd":11196,"defage":11197,"gfededB":11198,"gfedcea":11199,"gfedceag":11200,"eaA":11201,"eacB":11202,"eaba":11203,"GFEDEFGA":11204,"GFECEG":11205,"egdGBd":11206,"GBgf":11207,"GBFGE":11208,"fgge":11209,"fgbaf":11210,"eegf":11211,"dBAE":11212,"dBAAG":11213,"gfeede":11214,"gfegfd":11215,"ABca":11216,"ABcBG":11217,"ABcABA":11218,"ABcecA":11219,"ABccde":11220,"ABcBAGF":11221,"ABcAAB":11222,"ABABcd":11223,"ABABAG":11224,"ABAecA":11225,"ABAGEDE":11226,"ABAGFDDE":11227,"dedBcd":11228,"dedBB":11229,"dedefg":11230,"dedBdB":11231,"dedBcAFA":11232,"dedcBGGA":11233,"dedBcAAB":11234,"ĠAe":11235,"ĠABcde":11236,"DFAcde":11237,"DFABGE":11238,"DFAdfe":11239,"DFAFEDB":11240,"ecAFGA":11241,"ecABAB":11242,"ecAABd":11243,"ecABAGF":11244,"ecAfdB":11245,"ecAceg":11246,"ecABAFAFE":11247,"ecAFGFED":11248,"GBdAFD":11249,"GBdegd":11250,"dgdBAG":11251,"dgbgaf":11252,"dgggdB":11253,"dgddg":11254,"dggfgabg":11255,"agga":11256,"agdB":11257,"aggedB":11258,"AcBcd":11259,"Acefd":11260,"Acafe":11261,"Acefee":11262,"AcGGA":11263,"AccAcd":11264,"AccAGAcd":11265,"dffB":11266,"dfbagf":11267,"dfAdf":11268,"dffecA":11269,"dfcf":11270,"dfffef":11271,"edBge":11272,"edBBAFA":11273,"edBgedBg":11274,"EDc":11275,"EDd":11276,"dBGGBde":11277,"dAcde":11278,"dAcAG":11279,"dAcAB":11280,"dAfdcA":11281,"dAGFGE":11282,"dAfdA":11283,"dAeAdA":11284,"eAeg":11285,"dcdD":11286,"dcdg":11287,"dcdfg":11288,"dcdefed":11289,"dcdcAG":11290,"dcdecB":11291,"dcdAFDFA":11292,"dcdefedf":11293,"dcdgce":11294,"ĠEFG":11295,"ĠEBBA":11296,"ĠEFABc":11297,"dcAf":11298,"dcAFAc":11299,"dcAGEDD":11300,"Beefga":11301,"BecdBA":11302,"Beefgfeg":11303,"Beefgfge":11304,"edcG":11305,"edca":11306,"edccBc":11307,"edcBGE":11308,"edcBcBA":11309,"edcgec":11310,"edcBce":11311,"edcBdcBA":11312,"GFGGFG":11313,"EFC":11314,"DGBGdG":11315,"DGGFGAB":11316,"DGGEFG":11317,"DGBAGAB":11318,"EGd":11319,"EGGF":11320,"EGGED":11321,"EGcded":11322,"BcAE":11323,"BcABd":11324,"BcABAG":11325,"BcAGFE":11326,"BcAGFG":11327,"BABBAG":11328,"BABefe":11329,"aagfe":11330,"aabc":11331,"gfgg":11332,"gfgdBGB":11333,"gfgecegfe":11334,"gfgbagab":11335,"DBBA":11336,"DBDGB":11337,"AGEDEF":11338,"AGEFGABd":11339,"ABdBG":11340,"ABdfg":11341,"ABdfdd":11342,"ABdedBAG":11343,",|_":11344,"ccec":11345,"ccBGB":11346,"ccBce":11347,"ggb":11348,"gggB":11349,"BGABde":11350,"BGAEGD":11351,"BGAFGEFD":11352,"BGAFGABd":11353,"fffga":11354,"ffefa":11355,"ffgfdd":11356,"FFFDF":11357,"FFdFF":11358,"FFFAFD":11359,"FFFBFAF":11360,"FFFDFAF":11361,"efedBcdB":11362,"efedcAAc":11363,"-|=":11364,"afdBA":11365,"afdgfe":11366,"afdedc":11367,"dcBAf":11368,"dcBAce":11369,"dcBABcdB":11370,"AFABc":11371,"AFAGE":11372,"AFAAF":11373,"AFAdcA":11374,"DEFd":11375,"DEFGED":11376,"fgaB":11377,"fgaed":11378,"fgaaf":11379,"fgaafd":11380,"fgaedcAA":11381,"fgafgfef":11382,"fgafgecd":11383,"fgafgfdc":11384,"Addcdef":11385,"AdddAd":11386,"Addefedc":11387,"Addefedf":11388,"agfea":11389,"agfdf":11390,"gdBAG":11391,"gdgfed":11392,"gdad":11393,"gdgfdcA":11394,"ABcdBe":11395,"ABcdedcd":11396,"AFDFF":11397,"AFDDEFE":11398,"eAAAGE":11399,"eAABGA":11400,"eAAdAA":11401,"eAABAGEF":11402,"eAABGABc":11403,"DFBFAF":11404,"efddB":11405,"cAAce":11406,"GEDCA":11407,"cAGBAG":11408,"efeed":11409,"AGAcAG":11410,"AGAcE":11411,"AGABGF":11412,"dGde":11413,"dGdBA":11414,"dGBcdB":11415,"dGdBdG":11416,"edBAAB":11417,"edBABde":11418,"BEBA":11419,"BEFEDF":11420,"BEcEdEcE":11421,"BEPE":11422,"bggagf":11423,"bgbe":11424,"BAGAD":11425,"BAGAG":11426,"CEFE":11427,"CEFGA":11428,"CEGB":11429,"CECD":11430,"CEDEFD":11431,"CEAcec":11432,"cBcc":11433,"cBcABA":11434,"cBccde":11435,"cBcGEG":11436,"DAGF":11437,"DADBDAF":11438,"DAEGFD":11439,"GEEFED":11440,"GEEDEFGB":11441,"BAFAFA":11442,"BAFAde":11443,"BAFAce":11444,"gedBBAAA":11445,"gedBBAAd":11446,"bgafdf":11447,"bgagedBA":11448,"bgafgfdc":11449,"EAAF":11450,"EAAGAB":11451,"EAABcBAc":11452,"fefaa":11453,"fefaec":11454,"dcBF":11455,"BGEd":11456,"BGEGB":11457,"BGEGBd":11458,"DCDF":11459,"edeefg":11460,"BdBed":11461,"BEEFGABG":11462,"BEEDEFGE":11463,"ecdA":11464,"ecdecA":11465,"ecdAFA":11466,"ecdefd":11467,"ecdBcBA":11468,"GEGGAB":11469,"BcBAcB":11470,"BcBAGFGA":11471,"dBdgf":11472,"dBdcBA":11473,"dBdfg":11474,"dBdeee":11475,"dBdBdgfe":11476,"fAa":11477,"fAfa":11478,"BggfgdBG":11479,"AFEFGA":11480,"AFEGFA":11481,"BcdeEE":11482,"cBAGBcd":11483,"GABdegdB":11484,"efgagfed":11485,"efgabgaf":11486,"efgabeeg":11487,"DEGBAGG":11488,"EFGDC":11489,"EFGBdB":11490,"edBdcA":11491,"EFGABdBA":11492,"adfded":11493,"gefdc":11494,"ADAdcAG":11495,"BAAgfe":11496,"BAABGG":11497,"fecce":11498,"feccBc":11499,"fecefaaf":11500,"dfedBcdB":11501,"dfedBedB":11502,"dfedadfa":11503,"edcdc":11504,"edcdBA":11505,"edcdFADA":11506,"GBABcA":11507,"aeec":11508,"aeecee":11509,"fgfA":11510,"fgfgf":11511,"fgfaf":11512,"fgfdef":11513,"GABcBce":11514,"FEFGEC":11515,"AAAcAGA":11516,"EFABAF":11517,"EFABBA":11518,"agegfe":11519,"ageag":11520,"ageagede":11521,"agedd":11522,"agedBGG":11523,"agedcAFA":11524,"agedcAAG":11525,"BGBdefge":11526,"gBBAGB":11527,"gBBded":11528,"gbgfe":11529,"gbegf":11530,"dfaafe":11531,"fBa":11532,"fBaf":11533,"fdfgfe":11534,"fdfgeg":11535,"BeeGA":11536,"Beegee":11537,"BeeBggf":11538,"DGGBA":11539,"cAcece":11540,"cdefgfeg":11541,"BAGFDE":11542,"BAGFDD":11543,"gecBcA":11544,"gecgc":11545,"gecGce":11546,"DEDFDG":11547,"FDDd":11548,"FDDBAF":11549,"FDDGEE":11550,"ABGd":11551,"ABGFE":11552,"ABGdB":11553,"edcBB":11554,"edcBGAF":11555,"cecg":11556,"efgfde":11557,"DEFGAg":11558,"DEFGADD":11559,"DEFGAGFG":11560,"cBcdA":11561,"dBcBcA":11562,"dBcABAGF":11563,"CAC":11564,"GGGg":11565,"GGGBGdGBG":11566,"GGGdBcdB":11567,"gedBADFA":11568,"dFFED":11569,"dFdF":11570,"dFBAFD":11571,"dFBAGB":11572,"dFdFd":11573,"Aeedc":11574,"GAGBcd":11575,"GAGGAG":11576,"FGEB":11577,"BdeBdB":11578,"EBBABGEF":11579,"FDEDD":11580,"FDEDEF":11581,"cAGEDE":11582,"BBBBAG":11583,"BBBBce":11584,"dfeA":11585,"dfecdB":11586,"dfegfa":11587,"BABcAB":11588,"BAFEFG":11589,"BAFEED":11590,"BAFEDEFA":11591,"edBGGB":11592,"gfgabgag":11593,"BdgBGB":11594,"Bdgbafge":11595,"AEFEEF":11596,"agabageg":11597,"cAFABGG":11598,"cAFAcf":11599,"edeffe":11600,"edefefg":11601,"edefdc":11602,"CDEB":11603,"CDEFDA":11604,"dfdefg":11605,"ADDA":11606,"GABcdBcA":11607,"FEEDFA":11608,"Affed":11609,"cedd":11610,"FDFABA":11611,"BcdefB":11612,"gcg":11613,"gcgc":11614,"AaAfed":11615,"dBAFFEDF":11616,"GDBG":11617,"GDDE":11618,"GDFD":11619,"gfefdcA":11620,"fgfedcB":11621,"fgfedcBc":11622,"fgfedcdA":11623,"BceBe":11624,"bagfaf":11625,"bagfefge":11626,"dAAd":11627,"dAAded":11628,"eBBgfe":11629,"BdddB":11630,"BdddBGA":11631,"BGGGBc":11632,"bgegd":11633,"bgebge":11634,"cdcBcA":11635,"dAFADE":11636,"afegfe":11637,"fdcAFGAF":11638,"BFBcd":11639,"BFBB":11640,"BFcF":11641,"ECGE":11642,"ECAA":11643,"ECCA":11644,"ECDCA":11645,"ECCDEFGB":11646,"GABGGB":11647,"GABGBAA":11648,"GABGFADF":11649,"fgeB":11650,"fbfe":11651,"egeeg":11652,"egeedc":11653,"egeaeb":11654,"AGGGG":11655,"AcBAFEFA":11656,"fBBBcd":11657,"Gcedc":11658,"eGBG":11659,"ABAAFG":11660,"gdBGD":11661,"efeceaec":11662,"EGBedcBA":11663,"dcAGFADF":11664,"cAGAGE":11665,"BABcdg":11666,"cFFG":11667,"EEEec":11668,"caaf":11669,"caecd":11670,"caBa":11671,"GEDEA":11672,"GEDEGABc":11673,"faabaf":11674,"FEDEA":11675,"CCDC":11676,"CCCG":11677,"CCEGc":11678,"fafdBgec":11679,"fAAgAA":11680,"gdBdecAG":11681,"BGFGDGFG":11682,"cABGAE":11683,"cABGAGE":11684,"fdecdBcA":11685,"eeeef":11686,"geega":11687,"AGFAGBdc":11688,"aeceae":11689,"BcAAG":11690,":|]|":11691,"fdadfe":11692,"FADFE":11693,"ecBAc":11694,"BeededBd":11695,"BeededBe":11696,"BAAABA":11697,"GBGdBG":11698,"FGFEFE":11699,"efdBBAFA":11700,"efdBBAFB":11701,"GABGAD":11702,"BdfBg":11703,"dEcEBE":11704,"Adfagfed":11705,"Adfagece":11706,"|||:|":11707,"FGFFGA":11708,"FGFcAF":11709,"GABAdf":11710,"EFGEed":11711,"dBcABGGA":11712,"dBcABGGF":11713,"dfafgee":11714,"dfafbgaf":11715,"ABAFAFE":11716,"cfAcfa":11717,"BABGD":11718,"BDDEDE":11719,"BDGABDGB":11720,"AAAABcd":11721,"BfBgB":11722,"bgggfe":11723,"fdedfde":11724,"fdedfded":11725,"cBcAe":11726,"cBcAGF":11727,"BAGFEDEF":11728,"BAGFEFGB":11729,"defdAGFA":11730,"dBGGDG":11731,"agfgdc":11732,"afedcAA":11733,"eAceAceA":11734,"gbage":11735,"gbafdf":11736,"EGABAG":11737,"BGGABGBd":11738,"bfafec":11739,"bfafedBA":11740,"bfafgfec":11741,"dGBdG":11742,"feeede":11743,"dcdefded":11744,"EDDB":11745,"EDDC":11746,"gddg":11747,"ecAcefga":11748,"afecBd":11749,"defaaf":11750,"efgfedB":11751,"efgfedBA":11752,"gecdfg":11753,"faafeaae":11754,"cdcBAc":11755,"cAGEEDDF":11756,"gfedBgfg":11757,"cefBBc":11758,"Bcdgdedgd":11759,"cBBBdG":11760,"BdGdA":11761,"AGFGABde":11762,"gBBg":11763,"afefaf":11764,"afefde":11765,"FFFdFcF":11766,"afgedefg":11767,"FAdfgfed":11768,"egfeb":11769,"BedBcd":11770,"aecABc":11771,"aecAEA":11772,"BGEGD":11773,"EAcEAd":11774,"defedA":11775,"AdAeA":11776,"dBGBdged":11777,"dBGBdgfg":11778,"GBeBGE":11779,"GBegfedc":11780,"cABcdAFD":11781,"ABGEDE":11782,"ABGEFDD":11783,"fddcdefg":11784,"bafdefedef":11785,"DDEFEFG":11786,"EBBBAB":11787,"defdcAA":11788,"dgfgedBG":11789,"edgdedBd":11790,"aeege":11791,"BggBA":11792,"ddddef":11793,"GGAA":11794,"GEFGD":11795,"FAAABd":11796,"FAAAGF":11797,"gcacga":11798,"DFAFFEE":11799,"gbagefge":11800,"fedcdcAF":11801,"gbgdc":11802,"AGFDAG":11803,"GBAFDEFA":11804,"BGDGBGdB":11805,"egdBAGED":11806,"egdBABGE":11807,"dcdfedBc":11808,"dcdfedcA":11809,"dcdfedAF":11810,"AGABcBce":11811,"cdecAgfe":11812,"dedBGBdB":11813,"BAGABe":11814,"BegBeg":11815,"Begefafd":11816,"FBdBcAEF":11817,"FEDFABAF":11818,"eaagegd":11819,"ggfgb":11820,"cdedcAGA":11821,"GEDEGDEG":11822,"bagedG":11823,"GEEDEDEG":11824,"dcAAGEc":11825,"AfAeA":11826,"AeeAcA":11827,"DddD":11828,"efafedc":11829,"DDDDFAF":11830,"aefce":11831,"GEDGBA":11832,"ABcAdefg":11833,"ABcAdBcA":11834,"BFFB":11835,"BFFBcd":11836,"cBcdeedg":11837,"cAeAfedc":11838,"BGEDBG":11839,"GFGABdAG":11840,"bgafgefa":11841,"gefgdc":11842,"fdBdgfed":11843,"fadafd":11844,"AEABcd":11845,"AEAcBEGB":11846,"GDGBA":11847,"GDGBAFD":11848,"GECEFG":11849,"fdBAdf":11850,"dcBGDCB":11851,"fefdfd":11852,"fgafdBgec":11853,"dgfgbgdB":11854,"FAFEFE":11855,"efecAcec":11856,"EEEEFG":11857,"edBGADFA":11858,"///|":11859,"ceecBddB":11860,"gfeagedB":11861,"gafddf":11862,"EFABcBAB":11863,"EFABcBAF":11864,"DFADFADF":11865,"caacac":11866,"AeAeeAcB":11867,"CDEGcBcA":11868,"ecAecAeA":11869,"DEGABdd":11870,"Bffgf":11871,"EDFAdefa":11872,"ceedee":11873,"afdfabag":11874,"AAABE":11875,"FAGEDFAF":11876,"cAdAcAGA":11877,"DBBD":11878,"AddcABcA":11879,"dedcAGFG":11880,"EDCEABce":11881,"aageaba":11882,"AcBGAEE":11883,"AcBGAGED":11884,"dBcABEE":11885,"AAAcBc":11886,"dcdAFAdf":11887,"eagafedc":11888,"ADEDEG":11889,"FAdcEc":11890,"egdgcgBg":11891,"cAAGEAGE":11892,"GFEFGBAG":11893,"gfgabeeg":11894,"BcecBG":11895,"BABcBAce":11896,"cdefgeag":11897,"fefgfagf":11898,"AFEFABcA":11899,"eaafgece":11900,"cdcBcBA":11901,"GdBGD":11902,"GdBGFdAF":11903,"FDAFGFEc":11904,"fBdBfBdB":11905,"eeeeBBA":11906,"agecdfed":11907,"EAGBA":11908,"afecdBB":11909,"BBBcaa":11910,"BBBccc":11911,"ccddc":11912,"gebegeef":11913,"cAGcADDE":11914,"bgbbgb":11915,"FABAcBAF":11916,"egdBcBAB":11917,"egdBcAAG":11918,"dABGFADf":11919,"ABdfegfe":11920,"fBdefd":11921,"BABgBAB":11922,"GAFGBc":11923,"cABGEd":11924,"dcdfaafa":11925,"AFAAgf":11926,"fdedcAAB":11927,"fdedcAAG":11928,"gagefdcd":11929,"FGABcADF":11930,"gfecdAFA":11931,"GBAGEFGE":11932,"gfefdBd":11933,"gebegfef":11934,"dedBGBBGB":11935,"cfecBAFA":11936,"dfBfdf":11937,"cedcAc":11938,"eGGdGG":11939,"eccdBB":11940,"FAdfegfa":11941,"BDGBDDAB":11942,"ĠDFABAF":11943,"GEDEGABA":11944,"FDADFAAB":11945,"gBgBg":11946,"fdfgabag":11947,"fdfgafdf":11948,"Acefecce":11949,"-|--|-":11950,"cfAfcfAf":11951,"tril":11952,"EFEEFGBce":11953,"BgfgBd":11954,"eAgAeA":11955,"cAdBcAGB":11956,"AGcGAGcG":11957,"defdBAFB":11958,"DMajor":11959,"AEFGDB":11960,"EBeBA":11961,"gbebgb":11962,"fdcBAFF":11963,"ceaefeae":11964,"dAeAfAA":11965,"BGAFGEEF":11966,"faagfddg":11967,"BdAdBbb":11968,"gefeb":11969,"fdgefddf":11970,"degdBAGB":11971,"BAGFAFGED":11972,"GeGd":11973,"eBfBgabg":11974,"Bdfdbdfd":11975,"AMajAMaj":11976,"DFEEFD":11977,"GEAEGEEE":11978,"BgdBAecA":11979,"ECFCEC":11980,"accBcc":11981,"gfdfeA":11982,"EFGABeec":11983,"BfecdcBA":11984,"FABFABAFD":11985,"DGcBDF":11986,"cGEGcGGG":11987,"fdADFAcd":11988,"faefdeBd":11989,"dBgBdBce":11990,"dBBGFAAc":11991,"dgfaecdB":11992,"caBgAfGe":11993,"cBcGEFGB":11994,"dGABAGG":11995,"dGdBdGGg":11996,"DdFdDd":11997,"DAAGABcA":11998,"gfedBBAAG":11999,"afdgfaga":12000,"BgBAfA":12001,"BcABEEBEE":12002,"DAADABcA":12003,"BDDEDEGA":12004,"ecfedBed":12005,"baddag":12006,"dGdBdGdg":12007,"ADAdcAGc":12008,"AEFEEFCE":12009,"trill":12010,"'<":12011,"'|||:":12012,")||":12013,",,":12014,"10":12015,"28":12016,"::":12017,">|]":12018,"Aae":12019,"Aaged":12020,"Acdefg":12021,"Afedc":12022,"Aafe":12023,"AcAFG":12024,"Afde":12025,"Agfedc":12026,"AfdA":12027,"AcAAGA":12028,"BeA":12029,"BEF":12030,"BgedB":12031,"BedBd":12032,"BecB":12033,"Bfee":12034,"Baca":12035,"BBGEBGE":12036,"Cmin":12037,"Dcd":12038,"DBAF":12039,"DDEFA":12040,"DDEDB":12041,"DDEFGAB":12042,"DFEFGE":12043,"DMix":12044,"EcA":12045,"Ece":12046,"EcEdEcE":12047,"ECDEC":12048,"FdBG":12049,"Fff":12050,"FdcAG":12051,"FFEDF":12052,"FDEFDE":12053,"FBABdf":12054,"Ga":12055,"Gde":12056,"GdBA":12057,"Gdcd":12058,"Gedc":12059,"GGABA":12060,"Gddc":12061,"GCEC":12062,"GcAGFDC":12063,"Ha":12064,"^|":12065,"aeA":12066,"aefec":12067,"adde":12068,"aeee":12069,"aecAA":12070,"aefdec":12071,"aeag":12072,"aagg":12073,"bAA":12074,"bdc":12075,"bgfed":12076,"bffef":12077,"bdgd":12078,"bdgb":12079,"cGAB":12080,"cagf":12081,"ccAA":12082,"cbag":12083,"cFEF":12084,"cage":12085,"cBdcB":12086,"cFAcf":12087,"cGBAGE":12088,"cfecdBB":12089,"dDE":12090,"dgfga":12091,"decBA":12092,"dgaba":12093,"dDAD":12094,"dgedBd":12095,"dFAdef":12096,"dgabag":12097,"dadbd":12098,"eGB":12099,"eEG":12100,"eefge":12101,"eefgf":12102,"eAdc":12103,"eABAGE":12104,"ebagfe":12105,"eafecB":12106,"egabc":12107,"fBA":12108,"fBe":12109,"fBce":12110,"ffde":12111,"fgegde":12112,"gGF":12113,"ggfge":12114,"gdgd":12115,"ggeB":12116,"in":12117,"Ġdf":12118,"ĠGEE":12119,"ĠDEFA":12120,"ĠfB":12121,"ĠeBB":12122,"ĠcEE":12123,"ĠFAABA":12124,"ĠBGAGEGDG":12125,"BADA":12126,"BABcdef":12127,"BABGFG":12128,"BAAGED":12129,"BAceae":12130,"BAdBABde":12131,"BADDAG":12132,"edF":12133,"edGB":12134,"edABc":12135,"edABcd":12136,"edefgf":12137,"edgedc":12138,"edBcAF":12139,"edABGE":12140,"ededBc":12141,"edddef":12142,"eddcAB":12143,"edgedBAG":12144,"edefgfef":12145,"eddfdB":12146,"BcABAF":12147,"BcAdc":12148,"BcBAGAGF":12149,"BcBAGABG":12150,"Bcefgfec":12151,"BcFDGBd":12152,"efcd":12153,"efBB":12154,"efgedBG":12155,"efefdB":12156,"efecAA":12157,"efdedBA":12158,"efdcAF":12159,"effefa":12160,"GAde":12161,"GAABc":12162,"GAEA":12163,"GAcAG":12164,"GAddc":12165,"GAEAGA":12166,"cADF":12167,"cABAGF":12168,"cAEC":12169,"cAABAA":12170,"cAdBcA":12171,"cAdecA":12172,"cAGFGAB":12173,"cAdcBG":12174,"BdF":12175,"BdBcA":12176,"Bdddd":12177,"BdBGFG":12178,"BdBAAA":12179,"Bdddcd":12180,"BdBdAd":12181,"BdcBAc":12182,"BdBGAGEG":12183,"BdegdB":12184,"BddBde":12185,"gffed":12186,"gfdBA":12187,"gfdBG":12188,"gfafe":12189,"gfgedg":12190,"gfgedBGA":12191,"gfdcdf":12192,":|*":12193,"FADB":12194,"FAAdd":12195,"FAcAF":12196,"FADEFA":12197,"FAFEDE":12198,"FAfedcBA":12199,"FAAAB":12200,"cdgf":12201,"cdAB":12202,"cdDF":12203,"BGgf":12204,"BGcB":12205,"BGFED":12206,"BGDF":12207,"BGFB":12208,"BGBAGF":12209,"BGcAB":12210,"BGFGAc":12211,"BGFADF":12212,"BGdcAe":12213,"GFGEF":12214,"GEcGE":12215,"GEAGFD":12216,"GEFDC":12217,"fdga":12218,"fdBABc":12219,"fdecB":12220,"fdcAB":12221,"fdced":12222,"fdfedB":12223,"fdAGFA":12224,"fdBdef":12225,"fddecA":12226,"fdgecA":12227,"fdAGFD":12228,"fdegdB":12229,"fdafgfed":12230,"fdcBcedc":12231,"DEDEF":12232,"DECDE":12233,"DEEEE":12234,"DEGEA":12235,"DEGEB":12236,"AAec":12237,"AAdd":12238,"AABB":12239,"AAee":12240,"AAEA":12241,"AAFAB":12242,"AAGEA":12243,"gafdcA":12244,"gaefec":12245,"gagedBGA":12246,"gafecB":12247,"gaaage":12248,"Bcdcd":12249,"Bcdgfed":12250,"BcdeA":12251,"BcdBAGA":12252,"BcdedBG":12253,"BcdGd":12254,"BcdBcBAG":12255,"Bcdfdc":12256,"Bcdedeg":12257,"BcdedcAAB":12258,"BcdedBAA":12259,"ecge":12260,"eceee":12261,"ecfBBc":12262,"ecegbgeg":12263,"FEGFE":12264,"FEBEFE":12265,"cBAD":12266,"cBAce":12267,"cBAGEE":12268,"cBAaec":12269,"cBAcecBA":12270,"gecAG":12271,"geBGE":12272,"gegef":12273,"geBeg":12274,"geeBee":12275,"FDCDE":12276,"FDFGAB":12277,"FDGEC":12278,"FDDCB":12279,"dBged":12280,"dBecd":12281,"dBGAG":12282,"dBedcBAG":12283,"afbg":12284,"afeAcA":12285,"afgfde":12286,"afgfdf":12287,"ddgf":12288,"dddcA":12289,"dddde":12290,"dddedB":12291,"dddedBc":12292,"cBD":12293,"cBE":12294,"cBBG":12295,"cBBE":12296,"gedef":12297,"gedBcABG":12298,"gedfecc":12299,"ABgf":12300,"ABDD":12301,"ABBde":12302,"ABBABc":12303,"ABBAGB":12304,"ABBAGEDE":12305,"fedee":12306,"feddBA":12307,"fedded":12308,"fedfec":12309,"fedcec":12310,"fedcAFA":12311,"fedfede":12312,"fedBAFDF":12313,"fedfecBA":12314,"deG":12315,"degfed":12316,"decde":12317,"deeef":12318,"deaaf":12319,"FGGFG":12320,"ĠDAA":12321,"ĠDGGA":12322,"AdAFD":12323,"AdedcA":12324,"AdcdB":12325,"Adfedc":12326,"AdcABG":12327,"ceBG":12328,"ceba":12329,"ceAGE":12330,"ceefed":12331,"ceeAA":12332,"ceece":12333,"cegef":12334,"ceAAA":12335,"ceAg":12336,"GGdGG":12337,"GGGBdB":12338,"bafdB":12339,"bafdef":12340,"bagedBGA":12341,"bagfgdBG":12342,"bagedBAd":12343,"feb":12344,"feAA":12345,"feedB":12346,"fegece":12347,"BAGGF":12348,"BAGedB":12349,"BAGBE":12350,"BAGdGBd":12351,"BBE":12352,"BBfe":12353,"BBfBB":12354,"BBEGA":12355,"DDFGA":12356,"DDDCD":12357,"DDCDEFG":12358,"efgdf":12359,"efgefga":12360,"EEe":12361,"EEFAB":12362,"AFGABc":12363,"AFBAFD":12364,"AFcFA":12365,"AFcFAc":12366,"AFcFdF":12367,"FGAcB":12368,"FGAFF":12369,"FGAcAF":12370,"FGAFB":12371,"FGABcded":12372,"FGAGFA":12373,"FGAGFDDE":12374,"FGABcAFG":12375,"FGAFGFGB":12376,"faAc":12377,"fagg":12378,"faefa":12379,"facef":12380,"faagfddf":12381,"dccBA":12382,"dcBcdc":12383,"dcBdA":12384,"dcBcdf":12385,"AGBddB":12386,"defgedc":12387,"defdefde":12388,"gfedd":12389,"gfedBc":12390,"gfeddc":12391,"gfedag":12392,"gfedBAB":12393,"gfedcBc":12394,"gfedBcdB":12395,"gfedfedc":12396,"gfedceA":12397,"gfedceAc":12398,"gfedfdBc":12399,"eacA":12400,"eagef":12401,"eaefec":12402,"eaafec":12403,"eada":12404,"GFEGG":12405,"GFEDFA":12406,"GFEDEDB":12407,"GFEFDEDB":12408,"egdec":12409,"egBBAG":12410,"egbage":12411,"eggfeg":12412,"GBee":12413,"GBEF":12414,"GBDGBd":12415,"GBBGBB":12416,"fgA":12417,"fgdde":12418,"eeG":12419,"eeea":12420,"eeefe":12421,"eeedBA":12422,"eeece":12423,"eeefedBA":12424,"dBAGFG":12425,"dBAEG":12426,"dBABGE":12427,"dBAAAG":12428,"dBAcBGBd":12429,"dBAGEFGD":12430,"gfeA":12431,"gfeaf":12432,"gfegfdde":12433,"ABceg":12434,"ABcBAGE":12435,"ABcBce":12436,"ABceag":12437,"ABcBGAGEG":12438,"ABcFc":12439,"ABcABAGB":12440,"ABAGG":12441,"ABADEF":12442,"ABAcAA":12443,"ABAGFGA":12444,"ABAEFG":12445,"ABABce":12446,"ABAGEC":12447,"ABAGEA":12448,"ABAAFAd":12449,"ABAGFGAc":12450,"|||:_":12451,"dedeg":12452,"dedABAFA":12453,"dedBGABG":12454,"ĠAFA":12455,"DFAAB":12456,"DFAAd":12457,"DFAdc":12458,"DFAGFG":12459,"DFAFAB":12460,"DFAFEA":12461,"DFAFGBdB":12462,"GABBAB":12463,"GABDEGA":12464,"ecAg":12465,"ecAAA":12466,"GBdfe":12467,"GBdeg":12468,"GBdfg":12469,"GBdcAc":12470,"GBdFAd":12471,"GBdBcBAG":12472,"GBdBAGEF":12473,"GBdfgfge":12474,"dgc":12475,"dggedBG":12476,"dgdedB":12477,"dgdBGdBG":12478,"dgBdge":12479,"dgBdgBdg":12480,"aggdB":12481,"agbagf":12482,"aggfde":12483,"Acefga":12484,"Acfedc":12485,"AcEAc":12486,"Acefaf":12487,"dfBe":12488,"edBf":12489,"EDGA":12490,"EDADFA":12491,"dBGDFA":12492,"dBGBe":12493,"dBGFED":12494,"dBGDEF":12495,"dBGBBAAB":12496,"dAa":12497,"dABcde":12498,"dAFEF":12499,"dAGFDF":12500,"eAee":12501,"eAfecA":12502,"dcdfA":12503,"dcdeag":12504,"ĠEBBAB":12505,"ĠEAAB":12506,"dcAABc":12507,"dcABcA":12508,"dcAfga":12509,"dcABcAG":12510,"dcAGFDDF":12511,"BeedcA":12512,"Begedc":12513,"edccdc":12514,"edcedBGB":12515,"orianK":12516,"GFGc":12517,"GFGBc":12518,"EFBA":12519,"EFFE":12520,"EFGEE":12521,"EFGEF":12522,"DGBcd":12523,"DGBABc":12524,"DGGFGB":12525,"EGcA":12526,"EGGFGA":12527,"EGBAFD":12528,"EGDEGD":12529,"EGBGEGBG":12530,"BcAGEF":12531,"BABGABc":12532,"BABGAG":12533,"aaagf":12534,"aageg":12535,"aaeef":12536,"BAFDEDB":12537,"gfgdef":12538,"gfgefga":12539,"gfgdedBd":12540,"gfgefgafd":12541,"AGECA":12542,"AGEDCA":12543,"ABdFE":12544,"ABdABd":12545,"ABdfgfed":12546,"ABdfefd":12547,"ABdefede":12548,"ccg":12549,"ggbag":12550,"gggeg":12551,"gggbge":12552,"EAFA":12553,"EAGFE":12554,"EAcded":12555,"BGAGFG":12556,"fffaf":12557,"fffedc":12558,"ffafedB":12559,"FFcF":12560,"efedg":12561,"efedfe":12562,"efededB":12563,"efedBAB":12564,"efedBAFA":12565,"efedcBAB":12566,"-|^":12567,"afdefd":12568,"afdgecd":12569,"afdfefge":12570,"afdBABdf":12571,"afdfefde":12572,"afdfefdf":12573,"cdeBcd":12574,"cdegag":12575,"cdegfdd":12576,"dcBAGFG":12577,"dcBAcBAG":12578,"dcBAGBE":12579,"AFAABd":12580,"AFAEA":12581,"AFAdAd":12582,"AFADAFA":12583,"AFABcBAB":12584,"DEFDEFGB":12585,"fgadef":12586,"fgadcd":12587,"fgabge":12588,"fgafc":12589,"fgafgfe":12590,"fgagfa":12591,"Addg":12592,"AddBA":12593,"Adddd":12594,"AddcAB":12595,"Adddfd":12596,"Addefde":12597,"BGGGED":12598,"agfgf":12599,"agfgedB":12600,"agfgfef":12601,"gdge":12602,"gddB":12603,"gdbag":12604,"ABcdecA":12605,"ABcdefed":12606,"ABcdedBA":12607,"ABcdBGFG":12608,"ABcdecAc":12609,"ABcdAGFGA":12610,"AFDc":12611,"AFDDD":12612,"AFDGEC":12613,"eAAecA":12614,"eAAcde":12615,"DFFG":12616,"DFBAF":12617,"DFFAFF":12618,"efdBc":12619,"efdBdB":12620,"eaagedBG":12621,"efegfed":12622,"efegfe":12623,"efeABA":12624,"AGABcdeg":12625,"dGBcdg":12626,"edBAAA":12627,"edBAdf":12628,"edBAGABG":12629,"edBAAGED":12630,"GFGABcBA":12631,"GFGABdcB":12632,"BEeE":12633,"bggfg":12634,"bgbb":12635,"BAGAA":12636,"BAGAGA":12637,"BAGAAG":12638,"BAGAGFE":12639,"CEAB":12640,"CEFGB":12641,"cBcG":12642,"cBcGEC":12643,"DAFE":12644,"DAcBA":12645,"GEEFDD":12646,"GEECEE":12647,"gedBBAGE":12648,"bgafd":12649,"bgabged":12650,"EAABG":12651,"EAABcBA":12652,"EAABcded":12653,"EAAEAB":12654,"EAABGABd":12655,"feff":12656,"fefage":12657,"fefdde":12658,"fefgecd":12659,"fefBBf":12660,"dcBGABcd":12661,"dcBfdB":12662,"dcBGAGED":12663,"BGEg":12664,"BGEGF":12665,"BGEGFDD":12666,"BGEFGAB":12667,"DCDFA":12668,"DCEA":12669,"DCDC":12670,"fafgeg":12671,"fafgecd":12672,"edege":12673,"edegaged":12674,"BdBfBf":12675,"BEEBAF":12676,"BEEBE":12677,"baffed":12678,"baffa":12679,"baffec":12680,"BcBAd":12681,"BcBABc":12682,"BcBAGEE":12683,"BcBAFEFA":12684,"dBdBc":12685,"dBdfed":12686,"dBdgd":12687,"dBdBdB":12688,"GFEDd":12689,"GFEDcBA":12690,"fAaA":12691,"Aceedc":12692,"Aceage":12693,"AFEEF":12694,"AFEAce":12695,"AFEEDE":12696,"AFECB":12697,"AFEEDB":12698,"Bcdegfdec":12699,"cBAGd":12700,"cBAGg":12701,"BABdBc":12702,"BABdgf":12703,"GABdedBA":12704,"GABdcABc":12705,"efgaga":12706,"efgaecA":12707,"efgaedcBA":12708,"efgabagf":12709,"efgafdg":12710,"EFGC":12711,"EFGFAG":12712,"EFGBEG":12713,"EFGABded":12714,"EFGABcdf":12715,"adfag":12716,"gefea":12717,"gefdA":12718,"CDDE":12719,"CDFGAc":12720,"gegba":12721,"cAFDE":12722,"FBBdcB":12723,"FBBABcdB":12724,"FBfedBB":12725,"fecefe":12726,"fecefa":12727,"fecefgaf":12728,"dfedBc":12729,"dfedBee":12730,"dfedBAFG":12731,"dfedcAAe":12732,"edcdBc":12733,"edcdefgf":12734,"abd":12735,"abe":12736,"GBAcB":12737,"GBABGB":12738,"DEFAdcde":12739,"DEFABFAF":12740,"AAAecA":12741,"AAAcAc":12742,"AAAcded":12743,"AAAeAce":12744,"AAAfAeA":12745,"AAAcAec":12746,"EFAFB":12747,"EFABdf":12748,"edcAag":12749,"eBBdB":12750,"agededBA":12751,"agedeage":12752,"BGBdd":12753,"BGBddB":12754,"BGBdde":12755,"EDEe":12756,"EDEFED":12757,"EDECEG":12758,"egfaged":12759,"egfgedBd":12760,"egfgegdg":12761,"egfagedc":12762,"defgdBd":12763,"gBed":12764,"gbegdg":12765,"gbegbegb":12766,"dfagf":12767,"dfaba":12768,"dfabaf":12769,"dfafde":12770,"dfagdc":12771,"dfafdaf":12772,"dBBa":12773,"dBBBdB":12774,"fdfc":12775,"fdfefg":12776,"BeeBcd":12777,"BeeefedBA":12778,"DGGD":12779,"cAced":12780,"fddagf":12781,"FAdD":12782,"FAdfdB":12783,"FAdABAFA":12784,"FAdEGc":12785,"abaefg":12786,"abaaga":12787,"cdefdcA":12788,"cdefedc":12789,"BAGFDC":12790,"BAGEc":12791,"BAGEAG":12792,"cEGA":12793,"BcBBG":12794,"geca":12795,"gecea":12796,"gecedcBA":12797,"gecfdB":12798,"gecceg":12799,"edcBAceg":12800,"gdBGA":12801,"DEDGED":12802,"FDDFGA":12803,"ABGEEG":12804,"cecBAF":12805,"efgfgf":12806,"efgfdedBc":12807,"DEFGADFA":12808,"DEFGAFDF":12809,"DEFGAFAB":12810,"cBcdBA":12811,"cBcdcBA":12812,"dBcABA":12813,"efacecA":12814,"dFFAFD":12815,"Aeec":12816,"Aege":12817,"Aeefe":12818,"GAGGEG":12819,"FGEFG":12820,"FGEEE":12821,"Bdeged":12822,"BBBBA":12823,"dfeB":12824,"dfeBB":12825,"BABcABce":12826,"defgafgf":12827,"BAFEC":12828,"dAFGAB":12829,"Bdgbaf":12830,"BdgAdf":12831,"AEFE":12832,"AEcBA":12833,"agaef":12834,"agage":12835,"agageg":12836,"agaage":12837,"agafdf":12838,"agagfd":12839,"agabaged":12840,"agaeagae":12841,"cAAABA":12842,"cAAAcAAA":12843,"edeff":12844,"CDEAGE":12845,"AFFFEF":12846,"AFFcFF":12847,"AFFFABdf":12848,"dfdcA":12849,"dfdcB":12850,"ABAGBc":12851,"ADDBAG":12852,"GABcdGBd":12853,"GABcdgfg":12854,"GABcdAFA":12855,"AdfdedBA":12856,"Adfdedef":12857,"DEGABcBA":12858,"DEGABABc":12859,"dBGAGF":12860,"dBGABcdB":12861,"GFDDCD":12862,"cedf":12863,"cedce":12864,"cedBAB":12865,"cedBcBAG":12866,"cBGEG":12867,"cBGdBGd":12868,"FDFAdA":12869,"AaecAc":12870,"AaBa":12871,"dBAFFEED":12872,"dBAFFEEA":12873,"fgfedef":12874,"fgfedfaf":12875,"fgfedBAGFDE":12876,"bagfde":12877,"bagfgedB":12878,"dAAdA":12879,"dAABAF":12880,"gaggf":12881,"DGBdcAFA":12882,"Bddge":12883,"BddAcc":12884,"BGGGdc":12885,"bgegf":12886,"bgegab":12887,"afgece":12888,"fedcfe":12889,"fedcedcB":12890,"cdcF":12891,"cdccAF":12892,"cdccdc":12893,"FDFCF":12894,"ceaA":12895,"dAFAdfaf":12896,"afegfede":12897,"fdcAFGAB":12898,"fdcAAGBd":12899,"BFBdB":12900,"BFBcdB":12901,"ECGED":12902,"ecccABcd":12903,"GABGFED":12904,"fgeBB":12905,"fbc":12906,"fbbb":12907,"DDDAFA":12908,"DDDFDF":12909,"DDDFEFG":12910,"DDDcD":12911,"fBBBAB":12912,"gagfag":12913,"ABAAed":12914,"gdBGDB":12915,"cABcAF":12916,"cABcAc":12917,"EGBedc":12918,"EFEe":12919,"agfedcde":12920,"FAcF":12921,"cdedeg":12922,"cdedcAGc":12923,"cAGAce":12924,"ABcAeA":12925,"ABcABGG":12926,"cFfF":12927,"EEEFD":12928,"EEEGAB":12929,"caeaca":12930,"caecdBB":12931,"fgfecd":12932,"ddeBd":12933,"ABdefafd":12934,"GEDEGF":12935,"FEDEB":12936,"AcAGF":12937,"AcAEA":12938,"CCCB":12939,"fafdfa":12940,"fAAe":12941,"fAAffede":12942,"gdBdecAc":12943,"ddddBBA":12944,"FGABcDEF":12945,"FGABcAdc":12946,"BGFGga":12947,"BGFGdc":12948,"BGEEGE":12949,"eeeedB":12950,"GEFGED":12951,"GEFDED":12952,"cEEG":12953,"AGFAGABc":12954,"aececA":12955,"BcAAg":12956,"GBdgbg":12957,"dBAFEFDA":12958,"FADDEF":12959,"FADcAG":12960,"ecBABA":12961,"BdefdB":12962,"DGBGDGBe":12963,"Beedeg":12964,"BeedBAGB":12965,"BeededBc":12966,"/>=":12967,"GECCD":12968,"GBBe":12969,"GBBBcd":12970,"GBBFBB":12971,"FGFEC":12972,"FGFEFD":12973,"efdBBAA":12974,"FDDDAG":12975,"AFDECA":12976,"EFGEFD":12977,"EFGEFGEF":12978,"ABGAGEG":12979,"dBcABcdf":12980,"cfcA":12981,"cfcdf":12982,"BABGFED":12983,"FEFAG":12984,"FEFABd":12985,"FEFADFA":12986,"BDdcBA":12987,"BDcD":12988,"AcBGABcd":12989,"AAAAB":12990,"AAAAAA":12991,"BdBABAG":12992,"egeded":12993,"BfBdf":12994,"dcBcBAG":12995,"bbbb":12996,"bggbaffa":12997,"GAcGE":12998,"gfgecdec":12999,"fdedce":13000,"cBcAcA":13001,"CEGC":13002,"CEGce":13003,"CEGDFA":13004,"CEGCEG":13005,"CEGcGE":13006,"defdBcde":13007,"addfdB":13008,"addadd":13009,"addgdd":13010,"cBAFFE":13011,"aAae":13012,"GEADEG":13013,"dBGGBc":13014,"dBGGef":13015,"DADAFA":13016,"cdegc":13017,"cdegec":13018,"EDCG":13019,"BGGAFD":13020,"BGGADD":13021,"dGBde":13022,"dGBdef":13023,"dcdefBB":13024,"bgafgedc":13025,"EDDF":13026,"fagfecc":13027,"defaafed":13028,"defadefa":13029,"decABAFA":13030,"efgfedf":13031,"FGBFG":13032,"GFGEGFE":13033,"GFGEDG":13034,"gecdBG":13035,"faafafed":13036,"faafgbbg":13037,"cdcBABcA":13038,"BAGBAGFG":13039,"AABcBcd":13040,"ccccA":13041,"cccacgc":13042,"Adefaf":13043,"BeBef":13044,"cefaf":13045,"Bcdgbag":13046,"cBBBcd":13047,"GFGABDD":13048,"EcEAE":13049,"FBBBc":13050,"AGFGAg":13051,"afefb":13052,"BdddgedBG":13053,"Bdddeddd":13054,"dfecdA":13055,"FFFBcde":13056,"FFFcFAF":13057,"AaaAg":13058,"fgedcA":13059,"BdAFEDCE":13060,"ceAfe":13061,"AAGFAGF":13062,"gggdg":13063,"DGAd":13064,"Gggeaged":13065,"eaageddg":13066,"AABAE":13067,"GAGEGED":13068,"AdcBGG":13069,"ABAGEFG":13070,"ABAGEFGE":13071,"ABAGEFGB":13072,"BdAdBGG":13073,"BdAdBABd":13074,"Bedf":13075,"efedBEBA":13076,"cecAcA":13077,"fdefdA":13078,"cBAcBGGf":13079,"GBeGBe":13080,"efedcBcd":13081,"efedcBcA":13082,"EAcAe":13083,"EAcABAFA":13084,"cdBAcd":13085,"Bdefgefd":13086,"cgcB":13087,"cgcec":13088,"egdgegde":13089,"ABcBAGEG":13090,"cdcAGF":13091,"efgafgedB":13092,"dFFFEF":13093,"FEFDdB":13094,"FEFDGBAG":13095,"fddcdfa":13096,"fddcdAFA":13097,"fddcdefd":13098,"BGAGEGD":13099,"eBdBAG":13100,"fefgafd":13101,"AFdFEA":13102,"dgfgedcB":13103,"gagededB":13104,"AGFEDcBA":13105,"EEDEFDB":13106,"DFDCD":13107,"edgdBAA":13108,"gabgagab":13109,"gabgagfd":13110,"aeeege":13111,"aeegee":13112,"EDEFDEFA":13113,"ddddcAB":13114,"FAAAFE":13115,"dDDFED":13116,"AcccBA":13117,"AcccAG":13118,"gbgb":13119,"EFGABcBG":13120,"egdBAcBA":13121,"dcdfedeg":13122,"afgeafge":13123,"EGcgeg":13124,"BcBBef":13125,"cdecABAG":13126,"FcFAF":13127,"AFGECE":13128,"AFGEFDDA":13129,"AFGEFDDE":13130,"fdgefe":13131,"BcAFAcA":13132,"eABAe":13133,"BegB":13134,"Begbge":13135,"FBdfed":13136,"GEFDEA":13137,"dcBdcBAB":13138,"dGBg":13139,"EGDGED":13140,"EGDGEG":13141,"eAAAeAce":13142,"FDCFDGG":13143,"defdBee":13144,"dbca":13145,"fdfad":13146,"AfAeAf":13147,"FAdAfd":13148,"AeeA":13149,"AeeAee":13150,"DddDcc":13151,"decdBcA":13152,"decdABcA":13153,"BAGFAGFE":13154,"BBcc":13155,"BBcef":13156,"AFDFABcA":13157,"AFDFABAF":13158,"egfedBB":13159,"EFABFEED":13160,"BcdcBAGE":13161,"afdfeB":13162,"aefae":13163,"gefdeB":13164,"fcAf":13165,"CEEB":13166,"CEEC":13167,"gGdB":13168,"BcdecAd":13169,"BcdecAg":13170,"BcdecABcd":13171,"GFDEC":13172,"GDGD":13173,"AdBEED":13174,"dcBGBc":13175,"dcBGEAA":13176,"BGdBcdeg":13177,"DFEDCA":13178,"fefdAF":13179,"fefdfa":13180,"afecAF":13181,"dcccBB":13182,"dgfgefge":13183,"FAFECA":13184,"dBAcBGGd":13185,"DFGAGF":13186,"efecAF":13187,"cBABcedc":13188,"ggdBgdB":13189,"BcBGEF":13190,"EeE":13191,"Eeefgfed":13192,"cdBcABcA":13193,"EAceae":13194,"ABBABcdB":13195,"AeAe":13196,"gbagfdcA":13197,"BEGBG":13198,"BDGBAGAB":13199,"bgfgegdg":13200,"eAdBGB":13201,"DEGABdef":13202,"BffBg":13203,"BffBff":13204,"EDFAdB":13205,"gAAgAA":13206,"GGGGBd":13207,"GEcGEDD":13208,"cBAGEAA":13209,"dBdeBA":13210,"EEFGFED":13211,"EGBdc":13212,"fbbfb":13213,"FAGEFE":13214,"FAGEFDD":13215,"fdecAG":13216,"feefaa":13217,"DBBDBB":13218,"gdgbgd":13219,"FAdefdef":13220,"eBegf":13221,"AddcAGEG":13222,"dedcAGFED":13223,"fgfdAdfd":13224,"abgdB":13225,"eBdBBA":13226,"eABe":13227,"cecdcAc":13228,"dggfgedc":13229,"GcEDD":13230,"gdedgd":13231,"EDCEDEFA":13232,"EFDEAG":13233,"FAABAFEF":13234,"FAABABde":13235,"cFAcd":13236,"efgdBBAA":13237,"BEGBEB":13238,"edceag":13239,"BGEFGBAG":13240,"fcccfcdf":13241,"DDDADBD":13242,"caceca":13243,"dABAFB":13244,"efgbefgb":13245,"bgdBgdBG":13246,"eccccB":13247,"FEDDFA":13248,"dfafgece":13249,"BcdecdBAG":13250,"faecdBB":13251,"egfdeA":13252,"dgBgeg":13253,"DCDEFEFA":13254,"gedBcAAg":13255,"aafea":13256,"gfegfegf":13257,"Gcegfe":13258,"BGcGdG":13259,"cAGEFDDe":13260,"eddeB":13261,"BGcAdBAG":13262,"BdcedBAF":13263,"eAAeAAeA":13264,"fdfgec":13265,"dfefdA":13266,"ffffff":13267,"ccAcB":13268,"ĠEAAABd":13269,"BeedBeef":13270,"egdBcBAG":13271,"dBdBedcB":13272,"AecAec":13273,"cBABGABcd":13274,"DGBGAGBd":13275,"Ggggfg":13276,"faeafdd":13277,"eAAGAedc":13278,"defgaffa":13279,"BgfgedBd":13280,"FAdfafdf":13281,"AGGAEE":13282,"GEcEGAB":13283,"afegfdAF":13284,"afegfddc":13285,"dBGBdBgd":13286,"afbfafef":13287,"ABAAFDFGA":13288,"AFDEFAB":13289,"ABAGEGDE":13290,"Bdgbgd":13291,"gabgeaa":13292,"EBBABGEg":13293,"dfAdFDD":13294,"FBBABABd":13295,"Aeedefge":13296,"BdAcBG":13297,"fdgeafbg":13298,"fdffga":13299,"fdffaf":13300,"ADBDcD":13301,"ADBDcDBD":13302,"dcdfecAG":13303,"dDcDB":13304,"eGGd":13305,"feeeBccc":13306,"eagfedcA":13307,"ADAGFGG":13308,"afafaf":13309,"cAfAG":13310,"eBegbe":13311,"EDCDEDCD":13312,"befeb":13313,"fBBBaf":13314,"afedBeef":13315,"bgdgdgbg":13316,"FGEGD":13317,"afeafdd":13318,"CFAFCF":13319,"FFFABAF":13320,"eAABcBcA":13321,"BcABcAA":13322,"Dddcdefd":13323,"DddcdcAG":13324,"gdggdc":13325,"BcAcGc":13326,"fBbBaBgB":13327,"eAgAfe":13328,"geaebe":13329,"cfafef":13330,"GGGBGAG":13331,"egdBBAAB":13332,"cdegfddf":13333,"agabaece":13334,"DDDADFD":13335,"defddefd":13336,"fAgAaA":13337,"caecBcde":13338,"cAeAfAed":13339,"egdgegd":13340,"ceeAee":13341,"fadfad":13342,"dfBdceAc":13343,"aAAAaf":13344,"DEEDEABc":13345,"AeAfAe":13346,"ecBdcBAF":13347,"BeedBdA":13348,"cddcdcdf":13349,"fdgefdd":13350,"dBfBdBfB":13351,"BbbBaa":13352,"BBBgBfB":13353,"BBBgBaB":13354,"GEcEGcGE":13355,"cefecf":13356,"cAABcAec":13357,"DEGBAGGA":13358,"EFABcAce":13359,"EeededBA":13360,"febefebe":13361,"AcAAcA":13362,"fAeAdBGB":13363,"dgegdgg":13364,"ADFDFAA":13365,"effgga":13366,"BdAcBEE":13367,"cAGBADDE":13368,"BdAdGdFd":13369,"ecgceaag":13370,"dggededc":13371,"EFABceec":13372,"dAdfafdf":13373,"fgefdecd":13374,"ceefecae":13375,"FDFDGBAG":13376,"cccace":13377,"FDADBDAG":13378,"AATcAe":13379,"ĠDGBGAGBG":13380,"dFFcFFdcB":13381,"cAGFECCE":13382,"BGGBGGcG":13383,"ADDEFAcA":13384,"eEEDEGFE":13385,"ecAGFAdc":13386,"BgdgBGGB":13387,"BgfgedBe":13388,"BGBcAeeddd":13389,"fdcfAFcA":13390,"aeeeaege":13391,"dafadf":13392,"fadafada":13393,"faAcedd":13394,"eaafecce":13395,"'|^":13396,"-|:":13397,"-|||:":13398,"21":13399,"Aga":13400,"Aedcd":13401,"Aafg":13402,"Agee":13403,"AEFDE":13404,"Aagfef":13405,"ADEDDB":13406,"Bfaf":13407,"Bfdf":13408,"BgedBA":13409,"BDBD":13410,"Bgfde":13411,"BBAFEFA":13412,"BDEB":13413,"Becegec":13414,"CAB":13415,"CEFGE":13416,"CEED":13417,"CGFEFG":13418,"CDDA":13419,"DcA":13420,"Daf":13421,"DdAF":13422,"DAFDE":13423,"DdAFD":13424,"DFGAF":13425,"DcBAGA":13426,"DFEDC":13427,"DFGAd":13428,"DDEFABd":13429,"Eb":13430,"EBAA":13431,"EGABcd":13432,"EcBG":13433,"Ecdc":13434,"EcAFG":13435,"EcF":13436,"EBAGFE":13437,"EAFGED":13438,"Ffe":13439,"FBcdB":13440,"FdAFA":13441,"FcAFG":13442,"FCC":13443,"FBdef":13444,"Feed":13445,"FFEFG":13446,"FBded":13447,"FBEB":13448,"FdAFE":13449,"FBAFED":13450,"FBAFAB":13451,"Gm":13452,"Gec":13453,"GgedB":13454,"GdcB":13455,"GdF":13456,"GFAB":13457,"GGAc":13458,"GDEGAB":13459,"GGAGF":13460,"GCG":13461,"GDEDC":13462,"GDEB":13463,"GcAGEC":13464,"GCCG":13465,"GDEFGABc":13466,"GBAFAG":13467,"GdGeGd":13468,"Lfe":13469,"LRH":13470,"Pa":13471,"Pc":13472,"RLH":13473,"RLRH":13474,"TR":13475,"Tdcd":13476,"]|:":13477,"]||:":13478,"aAGA":13479,"aeAce":13480,"aefde":13481,"bed":13482,"befg":13483,"bdf":13484,"beA":13485,"bAf":13486,"bgdBd":13487,"beae":13488,"bAaAg":13489,"bfbd":13490,"co":13491,"cfed":13492,"ccdef":13493,"ccBAB":13494,"cGEEDD":13495,"ccdec":13496,"cBdG":13497,"cefgb":13498,"ccABcde":13499,"cfcf":13500,"dDEF":13501,"dDA":13502,"ddBGA":13503,"decc":13504,"dAdA":13505,"dbdad":13506,"dTc":13507,"eC":13508,"eGAB":13509,"eDB":13510,"eeaa":13511,"eefa":13512,"eedBG":13513,"eEEE":13514,"eecBA":13515,"eafgef":13516,"eeae":13517,"eeag":13518,"eGBe":13519,"eBGEFG":13520,"fBcdef":13521,"fBdAB":13522,"fDaf":13523,"gD":13524,"ggeg":13525,"gGBA":13526,"gdBB":13527,"gAe":13528,"gBcdef":13529,"gdedB":13530,"gdcBc":13531,"gdBAA":13532,"gdcBAB":13533,"ow":13534,"ta":13535,"wc":13536,"wd":13537,"âĻ":13538,"Ġefed":13539,"ĠdG":13540,"ĠDEG":13541,"ĠgedBG":13542,"ĠBGGA":13543,"ĠDEGABGG":13544,"BADD":13545,"BAeA":13546,"BABAB":13547,"BAeAA":13548,"BABAFA":13549,"BAdcB":13550,"BAAGF":13551,"BAcBAG":13552,"BAFGAF":13553,"BADFB":13554,"BABcBAGF":13555,"BADDA":13556,"edded":13557,"edABd":13558,"edAFA":13559,"edfaf":13560,"eddcdefg":13561,"edecAG":13562,"edgedBGB":13563,"edefedef":13564,"eddBdedB":13565,"edgedBAc":13566,"BcBdB":13567,"BceB":13568,"BcBGF":13569,"BcDBD":13570,"efcA":13571,"efag":13572,"effA":13573,"efdde":13574,"efeee":13575,"efgfedc":13576,"efdefd":13577,"efffef":13578,"efPf":13579,"efBffe":13580,"GAg":13581,"GAGBd":13582,"GAced":13583,"GAcded":13584,"GAcee":13585,"GAAGAB":13586,"GAAGB":13587,"GAFAE":13588,"GAABAB":13589,"GAegbg":13590,"GAFDFAc":13591,"cABAGA":13592,"cAEFG":13593,"cAdefg":13594,"cABcdB":13595,"cAFAd":13596,"cAcAB":13597,"cABce":13598,"cABAGB":13599,"cAFEFG":13600,"cAfcA":13601,"cAAdcA":13602,"cAECA":13603,"cAFECE":13604,"cAcABGBG":13605,"BdBABd":13606,"BdAD":13607,"Bdefgf":13608,"Bdedef":13609,"BdcBG":13610,"Bdedd":13611,"Bdgedg":13612,"BdBAFB":13613,"Bdfff":13614,"BdABABd":13615,"BdABdefd":13616,"BdfdedBA":13617,"Bdefgfec":13618,"BdgedcBA":13619,"gfgfec":13620,"gfdABG":13621,"FABG":13622,"FAEG":13623,"FAdG":13624,"FAfA":13625,"FAFEF":13626,"FABBB":13627,"FAcAFA":13628,"FAAf":13629,"FAAcBA":13630,"FAAAG":13631,"FAAABA":13632,"FABdAF":13633,"FAAFAB":13634,"FADFAF":13635,"FAAGEA":13636,"cdce":13637,"cddef":13638,"cdBGG":13639,"cdgd":13640,"cddG":13641,"cdcE":13642,"cdcAGE":13643,"cdBBB":13644,"cdAGG":13645,"cdgedc":13646,"cdABcA":13647,"cddedB":13648,"cdfag":13649,"cdecAc":13650,"cdfgaf":13651,"cdeag":13652,"cdfafdf":13653,"cdedcBAB":13654,"cdddedc":13655,"BGcBA":13656,"BGgB":13657,"BGGFD":13658,"BGFGFE":13659,"BGGBdB":13660,"BGcBAF":13661,"BGdAFD":13662,"BGFDB":13663,"BGcAd":13664,"BGgfec":13665,"BGdcBG":13666,"BGFAFD":13667,"BGdBGd":13668,"BGGFEDB":13669,"BGFDEC":13670,"BGcABGGB":13671,"BGFEDEFD":13672,"BGGFGAGE":13673,"GFGFG":13674,"GFFF":13675,"GFDCB":13676,"GECA":13677,"GEDEFG":13678,"GEFGAF":13679,"GEGAGE":13680,"GEAAc":13681,"fdedc":13682,"fddcBA":13683,"fdAFA":13684,"fdagf":13685,"fddefg":13686,"fdcAc":13687,"fdcec":13688,"fdBde":13689,"fdfede":13690,"fdBABG":13691,"fdadd":13692,"fddcde":13693,"fdfgaf":13694,"fdBdA":13695,"fdAFDFAF":13696,"fdegfdec":13697,"fdAFDFAd":13698,"fddcBAFG":13699,"DEAA":13700,"DEFF":13701,"DEGEE":13702,"DEFEE":13703,"DEFDA":13704,"DEEFD":13705,"DEGGBd":13706,"AAcBA":13707,"AAGG":13708,"AADA":13709,"AAGFED":13710,"AAAAA":13711,"AABce":13712,"AAAGB":13713,"AAAFEE":13714,"AAAGABd":13715,"AAABdd":13716,"AAdfb":13717,"AAABAdA":13718,"AAcABAcA":13719,"gagc":13720,"gaeAcA":13721,"gagdBd":13722,"gafde":13723,"gagfedcB":13724,"gaeedc":13725,"Bcdb":13726,"BcdGAB":13727,"BcdAc":13728,"BcdABd":13729,"BcdBAFA":13730,"BcdcABc":13731,"BcdcBAGF":13732,"BcdDFE":13733,"BcdBAGFD":13734,"Bcdefgfec":13735,"ecBB":13736,"eccec":13737,"ecBce":13738,"ecaecA":13739,"eceAAA":13740,"ecaef":13741,"ececea":13742,"eccBcB":13743,"ecGEGc":13744,"FEd":13745,"FEe":13746,"FEcd":13747,"FEAA":13748,"FEBAFA":13749,"FEFGB":13750,"FEFEDEFG":13751,"FEccE":13752,"cBAfed":13753,"cBABcdB":13754,"cBAdcAG":13755,"cBAFAc":13756,"cBAGAF":13757,"cBAFAG":13758,"cBABGD":13759,"cBABGAGEG":13760,"cBAGFDDE":13761,"cBAfecBA":13762,"cBABGEA":13763,"cBAgfage":13764,"cBABGEGD":13765,"geBd":13766,"gecde":13767,"geefge":13768,"geagfe":13769,"gegfdB":13770,"geAceg":13771,"FDdA":13772,"FDCE":13773,"FDAFd":13774,"FDDCA":13775,"FDAGFDD":13776,"FDGFDGFD":13777,"dBa":13778,"dBfg":13779,"dBfedB":13780,"dBFDB":13781,"dBBcAF":13782,"dBFBd":13783,"dBgedBGB":13784,"dBgedBAG":13785,"dBfBgB":13786,"dBedcAdc":13787,"affga":13788,"afgd":13789,"afefe":13790,"afad":13791,"afgedc":13792,"afagfe":13793,"afAdef":13794,"afaagf":13795,"affae":13796,"affcff":13797,"ddBc":13798,"ddGA":13799,"ddAd":13800,"ddfe":13801,"dddef":13802,"ddAFD":13803,"ddcBc":13804,"dddfed":13805,"ddeB":13806,"dddefgd":13807,"cBBdB":13808,"cBfB":13809,"cBBAGF":13810,"cBGABG":13811,"cBBdAd":13812,"gedG":13813,"geda":13814,"gedAB":13815,"gedgd":13816,"gedecd":13817,"gedcAB":13818,"gedcdefg":13819,"gedgedBd":13820,"gedBcAGE":13821,"ABDE":13822,"ABBAGE":13823,"ABDBA":13824,"fedAF":13825,"fedfa":13826,"fedfg":13827,"fedBGB":13828,"fedAce":13829,"fededcBA":13830,"fedcdc":13831,"feddedd":13832,"fedceA":13833,"fedBcAFA":13834,"fededBdBA":13835,"fededA":13836,"fedfefdB":13837,"fedefgag":13838,"deAc":13839,"deedB":13840,"deedc":13841,"degdBG":13842,"degdBd":13843,"degee":13844,"decdeg":13845,"degea":13846,"degedBGB":13847,"deedBGAB":13848,"FGC":13849,"FGBG":13850,"FGdfaf":13851,":||:_":13852,"ĠDFAF":13853,"ĠDGBG":13854,"ĠDBBAB":13855,"ĠDGGF":13856,"ĠDGBGA":13857,"AdFD":13858,"AdAG":13859,"AdAc":13860,"AdBGB":13861,"AdcAF":13862,"AdAf":13863,"Adedd":13864,"Adcdec":13865,"AdABAF":13866,"Adcdeg":13867,"Adfedf":13868,"ceBB":13869,"ceecA":13870,"ceBAB":13871,"ceage":13872,"ceeB":13873,"ceaga":13874,"ceAf":13875,"ceagec":13876,"GGBcd":13877,"GGGBA":13878,"ĠGD":13879,"baage":13880,"bagedg":13881,"bafdA":13882,"bagedega":13883,"feedc":13884,"feecB":13885,"feafea":13886,"fegfagf":13887,"BAGGA":13888,"BAGBe":13889,"BAGBg":13890,"BAGBAFD":13891,"BAGdGG":13892,"BAGBABcd":13893,"BAGBEB":13894,"BAGcABA":13895,"BBGA":13896,"BBBGBd":13897,"BBBAFE":13898,"BBBdef":13899,"BBGAGFD":13900,"DDDED":13901,"DDGDB":13902,"efgA":13903,"efgefe":13904,"efgcg":13905,"efgdcBGG":13906,"EEg":13907,"EEDCA":13908,"EEEEDCE":13909,"AFFED":13910,"AFBAFA":13911,"AFFDE":13912,"AFdBAFE":13913,"AFGAF":13914,"AFCFA":13915,"AFDEFGAc":13916,"AFecdBB":13917,"FGABGB":13918,"FGAGFDD":13919,"FGAGAc":13920,"FGADd":13921,"FGAcBAFA":13922,"FGAFEFGE":13923,"fadfed":13924,"faedcA":13925,"fagfedc":13926,"faagec":13927,"fagfgd":13928,"fabged":13929,"faagfdde":13930,"fagfgAce":13931,"dca":13932,"dcedc":13933,"dccAG":13934,"dcBGE":13935,"dcBdef":13936,"dcBcdcB":13937,"dcceBe":13938,"AGg":13939,"AGBcd":13940,"AGce":13941,"AGGED":13942,"AGFAA":13943,"AGBGAF":13944,"defef":13945,"defged":13946,"defAFA":13947,"defcAF":13948,"deffgf":13949,"defedcA":13950,"defBde":13951,"defgfef":13952,"defdedB":13953,"defdedcd":13954,"defgfedef":13955,"defedBAd":13956,"gfedec":13957,"gfedcAAB":13958,"gfedcAAc":13959,"gfedeage":13960,"gfedfdAF":13961,"eadc":13962,"eagfef":13963,"eaecec":13964,"eaagfdcA":13965,"eagbeg":13966,"eaagfdde":13967,"eaagfddf":13968,"GFEFA":13969,"GFEec":13970,"GFEFF":13971,"GFEFGAB":13972,"GFEDCB":13973,"GFEGBEGB":13974,"egG":13975,"egBde":13976,"eggedBGB":13977,"eggff":13978,"GBf":13979,"GBBAB":13980,"GBDB":13981,"GBecd":13982,"GBefgfed":13983,"GBedcABc":13984,"fgga":13985,"fgba":13986,"fgdg":13987,"fggfg":13988,"fgdcc":13989,"eeE":13990,"eeefaec":13991,"eegaefd":13992,"dBAGFED":13993,"dBABF":13994,"dBAFGABc":13995,"dBABAGED":13996,"gfeed":13997,"gfebag":13998,"gfeAde":13999,"gfeBeg":14000,"ABcFA":14001,"ABcBGA":14002,"ABcDEF":14003,"ABcefa":14004,"ABcfc":14005,"ABcGEEDD":14006,"ABcABcde":14007,"ABcABGAF":14008,"ABcefaaf":14009,"ABcGcA":14010,"ABcABABc":14011,"ABAfed":14012,"ABAdc":14013,"ABAedB":14014,"ABABAB":14015,"ABADEG":14016,"ABAFGF":14017,"ABAGEDD":14018,"ABAGAGE":14019,"ABAGEGDG":14020,"ABAEAcAce":14021,"dedde":14022,"dedBGG":14023,"dedBAGA":14024,"dedBAGE":14025,"dedBde":14026,"dedced":14027,"dedBdBA":14028,"deddefgfe":14029,"dedBcBAB":14030,"dedBAGFD":14031,"deddAFG":14032,"dedBABGA":14033,"dedBdega":14034,"ĠAE":14035,"ĠABd":14036,"ĠAcc":14037,"ĠAeed":14038,"ĠAddcA":14039,"ĠADFDA":14040,"DFAde":14041,"DFAGFE":14042,"DFAdBG":14043,"DFABAB":14044,"DFAAGE":14045,"DFAAGF":14046,"DFAEGB":14047,"DFAdedc":14048,"DFAGFEF":14049,"DFABAFDF":14050,"DFAdBAGF":14051,"GABed":14052,"GABBGE":14053,"GABDED":14054,"ecAGBd":14055,"ecAdcA":14056,"ecAAFA":14057,"ecAGABc":14058,"ecAedBG":14059,"ecABBA":14060,"ecABcBB":14061,"ecAcdBGB":14062,"GBded":14063,"GBdBAG":14064,"GBdBAGED":14065,"GBdgfedf":14066,"dgBcd":14067,"dgefga":14068,"dggef":14069,"dgddd":14070,"dgggg":14071,"dgceBd":14072,"agcd":14073,"agde":14074,"agAf":14075,"aggee":14076,"aggbgg":14077,"AcD":14078,"Acfg":14079,"AcEF":14080,"AcEA":14081,"AcBcde":14082,"Acedcd":14083,"Acac":14084,"Acedef":14085,"Acagec":14086,"Acefgece":14087,"Acfcacfc":14088,"dfBA":14089,"dfge":14090,"dfefg":14091,"edBgf":14092,"edBBcd":14093,"edBGAGEG":14094,"EDGE":14095,"EDFE":14096,"EDABcd":14097,"EDAFD":14098,"EDCDEC":14099,"dBGcBA":14100,"dBGdc":14101,"dBGDB":14102,"dBGcAG":14103,"dBGcBAA":14104,"dABcd":14105,"dAGFG":14106,"dABde":14107,"dAFDF":14108,"eAfB":14109,"eAfdec":14110,"eAcAca":14111,"dcdcB":14112,"dcdgfe":14113,"dcdfga":14114,"dcdfef":14115,"dcdBGB":14116,"dcdBdB":14117,"dcdfgf":14118,"dcddAF":14119,"dcdedef":14120,"dcdAdfd":14121,"dcdfdB":14122,"dcdfdc":14123,"dcdfefga":14124,"dcdBAFF":14125,"dcdedcAB":14126,"dcdefaec":14127,"ĠEGA":14128,"ĠEGG":14129,"ĠEAAA":14130,"ĠEFGAB":14131,"dcAAA":14132,"dcAGG":14133,"dcAdc":14134,"dcADFA":14135,"dcAecA":14136,"dcABAF":14137,"dcAFAG":14138,"dcAdcAGE":14139,"Bega":14140,"BeAB":14141,"Begfed":14142,"Begfg":14143,"BeBGB":14144,"Beefa":14145,"Beedcdeg":14146,"Begfefde":14147,"FEDAA":14148,"FEDAB":14149,"FEDgfe":14150,"FEDDED":14151,"FEDFEDB":14152,"FEDFGBAG":14153,"edcBGB":14154,"edcBdB":14155,"edcedcBA":14156,"GFGBGG":14157,"GFGDGB":14158,"EFFA":14159,"EFFEF":14160,"EFGFGB":14161,"EFFAdBAG":14162,"DGdB":14163,"DGBGFG":14164,"DGGAGE":14165,"DGGABGAF":14166,"EGBB":14167,"EGGAB":14168,"EGcde":14169,"EGGABc":14170,"EGBcB":14171,"EGcdec":14172,"EGDCB":14173,"EGBcBc":14174,"EGcedBGB":14175,"BcAcA":14176,"BcAdB":14177,"BcAcBAGB":14178,"BABF":14179,"BABFAd":14180,"aadd":14181,"aagfg":14182,"aaac":14183,"aaaaga":14184,"aaaagf":14185,"BAFGF":14186,"BAFdF":14187,"BAFBAFED":14188,"gfgABc":14189,"gfggfg":14190,"gfgdefed":14191,"gfgbafd":14192,"gfgdBAA":14193,"DBDG":14194,"AGEcBA":14195,"AGEGFG":14196,"AGEcde":14197,"AGEGAGEG":14198,"AGEFGED":14199,"AGEGABcA":14200,"ABdcA":14201,"ABdgf":14202,"ABdaf":14203,"ABdfa":14204,"ABdedc":14205,"ABdedBA":14206,"ABdfdB":14207,"ABdefaef":14208,"ABdfefdf":14209,"ccBcd":14210,"cccf":14211,"ccgcc":14212,"cccBBB":14213,"gggfe":14214,"gggef":14215,"EAFE":14216,"EAFG":14217,"EAeg":14218,"EAGFDD":14219,"EAcBAE":14220,"EADEFDD":14221,"BGAD":14222,"BGAdBA":14223,"BGAGFDD":14224,"BGABcdef":14225,"BGAGEDD":14226,"BGAGFA":14227,"BGAEGDE":14228,"ffafe":14229,"fffgfeg":14230,"FFf":14231,"FFGE":14232,"efedBAG":14233,"efedeg":14234,"efedcde":14235,"efedBAFD":14236,"efedBAFE":14237,"afded":14238,"afdfd":14239,"afdde":14240,"afdfga":14241,"afdFAd":14242,"afdfedB":14243,"afddefe":14244,"afdfgeaf":14245,"cdegfdde":14246,"cdegeef":14247,"dcBABGA":14248,"dcBAGEE":14249,"dcBABce":14250,"dcBAFABc":14251,"dcBAGBed":14252,"AFAgfe":14253,"AFABcA":14254,"AFADA":14255,"AFABGE":14256,"AFAGFD":14257,"AFABAFED":14258,"AFAdAGFED":14259,"AFAdfedc":14260,"DEFFED":14261,"fgaef":14262,"fgaedc":14263,"fgagab":14264,"fgafgfdf":14265,"Addefd":14266,"Addfaf":14267,"AddFAd":14268,"AddBcABG":14269,"Adddfded":14270,"BGGGA":14271,"BGGGAG":14272,"agfefed":14273,"agffga":14274,"agfbag":14275,"agfagfed":14276,"agfddc":14277,"agfdefdB":14278,"gdfg":14279,"gdGBd":14280,"gdBde":14281,"gdadgd":14282,"ABcdedd":14283,"ABcdeAcA":14284,"ABcdegg":14285,"ABcdeaaf":14286,"ABcdegdB":14287,"ABcdeAAB":14288,"AFDFG":14289,"AFDFAB":14290,"AFDFEFD":14291,"AFDFEFGA":14292,"AFDAFDDEF":14293,"AFDFGECE":14294,"eAAAA":14295,"eAAFG":14296,"eAAgfd":14297,"eAAGEF":14298,"eAABcBAG":14299,"efdaf":14300,"efdAG":14301,"efdfg":14302,"cAAefd":14303,"cAAGABcd":14304,"cAAeAc":14305,"GEDDEGA":14306,"GEDGEA":14307,"GEDGECC":14308,"ĠBFF":14309,"cAGcAG":14310,"cAGFAF":14311,"cAGFAD":14312,"eaaecA":14313,"eaagfg":14314,"eaaefgfed":14315,"eaaAAc":14316,"eaabageg":14317,"AGAFG":14318,"AGAAd":14319,"AGAcBG":14320,"AGAEGA":14321,"dGGABd":14322,"dGGABc":14323,"dGGFDE":14324,"edBAef":14325,"edBAce":14326,"edBABcdB":14327,"edBABeef":14328,"GFGAFG":14329,"GFGABdBG":14330,"BEAG":14331,"bgbaf":14332,"bgefga":14333,"BAGAEA":14334,"BAGAGEDG":14335,"CEAGE":14336,"CEGFDDE":14337,"cBcea":14338,"cBceg":14339,"cBcAc":14340,"cBcBAF":14341,"cBceagfe":14342,"cBcBAFAc":14343,"DADA":14344,"DAcBAF":14345,"DADBDD":14346,"GEEDFA":14347,"GEEGAB":14348,"GEEDEFGc":14349,"BAFAAFA":14350,"bgafe":14351,"bgaeg":14352,"bgagfdcA":14353,"bgafgfec":14354,"eceefg":14355,"ecegfedc":14356,"EAAAA":14357,"EAAAB":14358,"EAAFAA":14359,"EAAGABGA":14360,"EAAGFDGA":14361,"fefc":14362,"fefefg":14363,"fefgfed":14364,"fefecA":14365,"fefae":14366,"fefAdf":14367,"fefgfede":14368,"fefgfedf":14369,"fefdfc":14370,"feffgafge":14371,"BGEGA":14372,"BGEBG":14373,"BGEGFE":14374,"BGEDEF":14375,"BGEcAG":14376,"DCF":14377,"DCDEFA":14378,"DCCC":14379,"AGFDF":14380,"AGFFEF":14381,"AGFFAc":14382,"AGFDEFGB":14383,"AGFDEA":14384,"fafge":14385,"fafcec":14386,"edeed":14387,"BdBDFA":14388,"BEEBAB":14389,"BEEFEF":14390,"BEEFEE":14391,"BEEBEB":14392,"BEEBAGFGA":14393,"bafbaf":14394,"bafafa":14395,"bafbafed":14396,"ecdBG":14397,"ecdBe":14398,"ecdcAGEF":14399,"GEGe":14400,"GEGBAG":14401,"GEGBAFAc":14402,"BcBABcd":14403,"BcBABGE":14404,"BcBAGFED":14405,"BcBAGEED":14406,"BcBAGEFG":14407,"dBdAd":14408,"dBdecA":14409,"dBdgagfed":14410,"dBdgeceg":14411,"GFEDAB":14412,"GFEDCE":14413,"fAcA":14414,"fAec":14415,"BgAf":14416,"Bggfgf":14417,"Acegeg":14418,"Aceaba":14419,"AcecAB":14420,"Acegfede":14421,"Acegagfe":14422,"Aceabf":14423,"Aceafee":14424,"AFEG":14425,
[...]
